const unsigned char model[] = {
  0x20, 0x00, 0x00, 0x00, 0x54, 0x46, 0x4c, 0x33, 0x00, 0x00, 0x00, 0x00,
  0x00, 0x00, 0x12, 0x00, 0x1c, 0x00, 0x04, 0x00, 0x08, 0x00, 0x0c, 0x00,
  0x10, 0x00, 0x14, 0x00, 0x00, 0x00, 0x18, 0x00, 0x12, 0x00, 0x00, 0x00,
  0x03, 0x00, 0x00, 0x00, 0xf0, 0x9e, 0x00, 0x00, 0xec, 0x99, 0x00, 0x00,
  0xd4, 0x99, 0x00, 0x00, 0x34, 0x00, 0x00, 0x00, 0x04, 0x00, 0x00, 0x00,
  0x01, 0x00, 0x00, 0x00, 0x04, 0x00, 0x00, 0x00, 0xb0, 0x61, 0xff, 0xff,
  0x08, 0x00, 0x00, 0x00, 0x0c, 0x00, 0x00, 0x00, 0x13, 0x00, 0x00, 0x00,
  0x6d, 0x69, 0x6e, 0x5f, 0x72, 0x75, 0x6e, 0x74, 0x69, 0x6d, 0x65, 0x5f,
  0x76, 0x65, 0x72, 0x73, 0x69, 0x6f, 0x6e, 0x00, 0x0d, 0x00, 0x00, 0x00,
  0x94, 0x99, 0x00, 0x00, 0xd0, 0x98, 0x00, 0x00, 0xb4, 0x98, 0x00, 0x00,
  0x68, 0x98, 0x00, 0x00, 0xa0, 0x8c, 0x00, 0x00, 0xc8, 0x8b, 0x00, 0x00,
  0xc0, 0x8b, 0x00, 0x00, 0xb8, 0x8b, 0x00, 0x00, 0xb0, 0x8b, 0x00, 0x00,
  0x2c, 0x00, 0x00, 0x00, 0x24, 0x00, 0x00, 0x00, 0x1c, 0x00, 0x00, 0x00,
  0x04, 0x00, 0x00, 0x00, 0x22, 0x66, 0xff, 0xff, 0x04, 0x00, 0x00, 0x00,
  0x05, 0x00, 0x00, 0x00, 0x31, 0x2e, 0x35, 0x2e, 0x30, 0x00, 0x00, 0x00,
  0xc0, 0x61, 0xff, 0xff, 0xc4, 0x61, 0xff, 0xff, 0x3e, 0x66, 0xff, 0xff,
  0x04, 0x00, 0x00, 0x00, 0x74, 0x8b, 0x00, 0x00, 0xff, 0xfc, 0x05, 0xee,
  0x07, 0x12, 0xf8, 0xf8, 0x04, 0x11, 0xfd, 0x06, 0xee, 0x03, 0x0b, 0xf4,
  0x0b, 0xef, 0x13, 0xf8, 0xee, 0xee, 0xfe, 0xf8, 0x0b, 0xf5, 0xfe, 0x01,
  0x0e, 0xf7, 0x04, 0x0d, 0x00, 0xee, 0xed, 0xfa, 0x01, 0x04, 0xf4, 0x10,
  0xf0, 0xf3, 0xf3, 0x02, 0x00, 0xf4, 0x0e, 0x07, 0xf7, 0xee, 0xf5, 0xff,
  0x01, 0xf4, 0xee, 0xfa, 0x07, 0xf5, 0xf2, 0x03, 0xf9, 0xfa, 0xef, 0xfd,
  0x12, 0xf5, 0xff, 0x0b, 0x01, 0xf3, 0xed, 0x0a, 0x12, 0x09, 0x12, 0x0e,
  0xfc, 0xed, 0xf6, 0x13, 0xf5, 0xf1, 0x03, 0xf4, 0x02, 0xf7, 0x10, 0xf8,
  0xef, 0x00, 0x00, 0xf2, 0x02, 0x04, 0xf3, 0x08, 0xfe, 0x05, 0x02, 0xfe,
  0xfd, 0xfc, 0x0a, 0x04, 0xff, 0x10, 0x0e, 0x06, 0x08, 0xf6, 0x03, 0x0c,
  0xf3, 0x06, 0x0e, 0xfe, 0xee, 0xf0, 0x11, 0x11, 0xee, 0x10, 0xf3, 0x0c,
  0xfd, 0x07, 0xfe, 0xed, 0xf4, 0x09, 0x13, 0x13, 0xf9, 0x0e, 0xff, 0xf0,
  0xfb, 0xfd, 0xfb, 0xf9, 0x03, 0x13, 0xf0, 0x06, 0xf8, 0xf3, 0xfd, 0xf4,
  0xff, 0xfd, 0xfa, 0xee, 0xed, 0x13, 0x11, 0x00, 0x10, 0xf8, 0xfd, 0xf5,
  0x10, 0xf6, 0xf9, 0xf7, 0x09, 0xed, 0x10, 0x01, 0x08, 0xf7, 0x11, 0x08,
  0x09, 0xfe, 0x00, 0x0c, 0x13, 0xf5, 0x04, 0xf4, 0xf9, 0xf6, 0x04, 0x04,
  0x05, 0x03, 0x08, 0xfe, 0x0a, 0xf3, 0xf0, 0x01, 0xf0, 0x0e, 0x0b, 0x09,
  0x11, 0xfb, 0xf2, 0x08, 0xf4, 0xfd, 0xed, 0xf0, 0xfa, 0x07, 0x03, 0xf5,
  0xf6, 0x04, 0x02, 0x10, 0x0b, 0xfb, 0xf5, 0xf9, 0x12, 0x09, 0x05, 0x03,
  0x0f, 0x0c, 0x0e, 0x0c, 0x08, 0xf1, 0x12, 0xf5, 0x00, 0xfb, 0xf1, 0xfb,
  0xf5, 0xf8, 0xf4, 0x01, 0x0e, 0x10, 0x0b, 0x08, 0x02, 0x14, 0xf1, 0xf1,
  0x02, 0x0d, 0xfd, 0x03, 0x0b, 0x12, 0x06, 0xf4, 0x0d, 0x13, 0x00, 0x09,
  0x11, 0xf8, 0x0a, 0xf5, 0x00, 0x03, 0x05, 0x07, 0x09, 0xed, 0x13, 0x13,
  0x11, 0xf4, 0x0a, 0x03, 0x00, 0x0d, 0x12, 0x0a, 0x02, 0xfa, 0xf0, 0xee,
  0xf5, 0x04, 0xf7, 0x05, 0x0c, 0xf8, 0x12, 0xf9, 0xff, 0xf1, 0x13, 0x0f,
  0x11, 0x0c, 0xf6, 0x0a, 0x0f, 0xfe, 0xff, 0xec, 0xf7, 0xf7, 0xf9, 0x02,
  0x09, 0x08, 0xf4, 0xff, 0xfc, 0xf6, 0x08, 0xf9, 0xed, 0x13, 0xf5, 0x06,
  0xfe, 0x0d, 0xf2, 0xf7, 0x0b, 0x0a, 0xf7, 0x0b, 0x09, 0xff, 0x04, 0xf9,
  0xf7, 0x0a, 0xef, 0x09, 0x0c, 0xf3, 0xf6, 0x0a, 0x04, 0xf0, 0x11, 0x09,
  0xf7, 0x09, 0xfe, 0xfe, 0x07, 0xf3, 0x04, 0xfe, 0x0c, 0xf2, 0xef, 0x11,
  0xef, 0xf4, 0xf0, 0x01, 0xef, 0x08, 0x04, 0x10, 0xff, 0xf9, 0xed, 0xf4,
  0xf1, 0xfd, 0xfb, 0xf1, 0xf7, 0xf2, 0x09, 0xf6, 0x05, 0xee, 0x0e, 0x12,
  0x03, 0x0a, 0xfa, 0x03, 0xf6, 0x0a, 0x0f, 0x13, 0xed, 0x12, 0x01, 0x00,
  0x0b, 0xff, 0x01, 0x00, 0xee, 0xfb, 0xfd, 0xed, 0x08, 0xf1, 0xf7, 0x09,
  0xfc, 0x0d, 0x0f, 0x0f, 0x06, 0x05, 0x00, 0x0f, 0x03, 0xfa, 0x02, 0xfb,
  0xed, 0x00, 0xed, 0x02, 0x00, 0xfd, 0x04, 0x0a, 0xf0, 0x12, 0xf2, 0xf0,
  0x0c, 0x0e, 0xf4, 0x0c, 0x03, 0xec, 0xfa, 0xee, 0xef, 0x06, 0xf0, 0x13,
  0x13, 0xf3, 0x04, 0xfc, 0xfc, 0xff, 0x06, 0xfc, 0xfd, 0xef, 0x08, 0x0c,
  0xed, 0xfd, 0xfc, 0x11, 0x00, 0xf2, 0xef, 0xf9, 0xf1, 0x04, 0xf7, 0xf8,
  0xef, 0xf3, 0x0a, 0x12, 0x01, 0xf7, 0x0e, 0x0e, 0xed, 0x08, 0x01, 0xf2,
  0xef, 0xfc, 0x01, 0xf9, 0x04, 0xf3, 0x12, 0xee, 0x0d, 0xf9, 0x13, 0xed,
  0x01, 0x12, 0xf8, 0xf4, 0x09, 0x13, 0xfb, 0x13, 0xf3, 0x02, 0xf2, 0xf1,
  0xf5, 0x0d, 0x06, 0xff, 0xf6, 0xf8, 0xf1, 0x01, 0x0a, 0x05, 0xf4, 0xf4,
  0xf8, 0xfb, 0xfa, 0x07, 0x02, 0xfc, 0xf5, 0x04, 0xf5, 0x02, 0x06, 0xfc,
  0xfb, 0x0e, 0xfe, 0x02, 0x08, 0x0c, 0x0a, 0xf9, 0x06, 0x0a, 0x10, 0x02,
  0x0e, 0x09, 0xfd, 0x0c, 0xfc, 0xf0, 0xf1, 0x04, 0xf3, 0x11, 0xff, 0x0b,
  0x04, 0x07, 0xf3, 0xfc, 0x0e, 0xf2, 0x02, 0x06, 0x04, 0xf7, 0x09, 0xf5,
  0x10, 0x0b, 0x0f, 0xf7, 0xee, 0xee, 0xf8, 0xfb, 0xf3, 0x0f, 0xfc, 0x08,
  0xff, 0x07, 0xf6, 0xf4, 0x12, 0xfa, 0xfd, 0x04, 0xf8, 0xee, 0xed, 0x0e,
  0xf5, 0x01, 0x10, 0x12, 0x0e, 0x11, 0x01, 0xef, 0xf7, 0xef, 0x0d, 0xfc,
  0xee, 0xfd, 0xfa, 0x11, 0x01, 0x02, 0x0c, 0x00, 0x0f, 0x10, 0xfa, 0xfe,
  0x0c, 0x13, 0x11, 0x12, 0xf3, 0xed, 0xf6, 0xfd, 0xf3, 0x12, 0x13, 0xf1,
  0xf0, 0xf1, 0x06, 0xf0, 0x00, 0xf8, 0x0d, 0x0a, 0xf8, 0x04, 0x11, 0xff,
  0xf5, 0x05, 0x0f, 0xef, 0xf8, 0x0e, 0x01, 0xfb, 0x11, 0x05, 0x13, 0x01,
  0xfe, 0xfe, 0x08, 0x03, 0x13, 0xf2, 0x0b, 0x10, 0x00, 0xff, 0x01, 0xf1,
  0xfa, 0xfb, 0x02, 0xef, 0x13, 0x12, 0x08, 0x02, 0x10, 0x12, 0x03, 0x0f,
  0x07, 0x05, 0x0e, 0xf3, 0x03, 0xfa, 0xf4, 0x03, 0xf5, 0x11, 0x07, 0x0c,
  0x0c, 0x0c, 0x01, 0xfa, 0x05, 0xf7, 0x06, 0xf6, 0x0d, 0xf0, 0xfe, 0x12,
  0x11, 0xfb, 0xf6, 0xfc, 0xf3, 0xf3, 0xef, 0xf4, 0x0a, 0xf5, 0x11, 0x0a,
  0x0f, 0xfe, 0xfa, 0xff, 0x04, 0x0f, 0xf6, 0x0a, 0xf2, 0xf6, 0xee, 0xf4,
  0x07, 0xf5, 0x01, 0xfd, 0x0d, 0x04, 0xf4, 0xed, 0x0b, 0x02, 0x07, 0xf3,
  0x09, 0x02, 0x05, 0x13, 0xf7, 0x0d, 0x11, 0xf8, 0x01, 0x12, 0xfe, 0xf0,
  0xf7, 0x04, 0x12, 0xec, 0x04, 0xf3, 0x06, 0x00, 0x0d, 0xf9, 0x0f, 0x07,
  0x00, 0xf0, 0x05, 0xf2, 0xfe, 0x0a, 0x12, 0x13, 0x0d, 0x01, 0xf9, 0xf5,
  0x0f, 0xed, 0x10, 0x0b, 0x06, 0xef, 0xf1, 0x06, 0x0a, 0xef, 0xff, 0xec,
  0xf3, 0x03, 0xfe, 0x01, 0x05, 0xf9, 0x05, 0x09, 0x0b, 0x08, 0x0a, 0xf5,
  0x02, 0xf6, 0x00, 0x0c, 0xf1, 0xf3, 0xfb, 0xfb, 0x11, 0x12, 0xef, 0xfc,
  0x09, 0x00, 0x05, 0xed, 0x00, 0x03, 0x07, 0xec, 0x02, 0x0b, 0x0c, 0xf0,
  0x01, 0xf4, 0xf7, 0xee, 0xf5, 0xfb, 0xed, 0x0c, 0xf8, 0x0e, 0xf9, 0x05,
  0xfe, 0xfc, 0x0c, 0xfb, 0x07, 0x12, 0x0c, 0xee, 0x0d, 0x02, 0x07, 0x06,
  0xef, 0xf9, 0x06, 0xf0, 0xfe, 0x05, 0xee, 0x0e, 0xf9, 0xef, 0xf7, 0x04,
  0xff, 0x0d, 0xf8, 0xee, 0xef, 0xef, 0x10, 0x04, 0xfb, 0xfd, 0xf2, 0x0b,
  0xf8, 0x0e, 0x08, 0x03, 0x01, 0x02, 0x06, 0x00, 0x04, 0xf5, 0x0b, 0x02,
  0xee, 0x03, 0x06, 0x0f, 0xf1, 0xf4, 0x03, 0x0d, 0x0b, 0xfc, 0x10, 0xf7,
  0xfc, 0xf4, 0x09, 0x12, 0xf0, 0x12, 0xf8, 0xf8, 0xf0, 0x10, 0x07, 0xfb,
  0x02, 0xf2, 0xfa, 0x09, 0x08, 0xf1, 0x0b, 0xf1, 0xf4, 0x0f, 0x04, 0xf1,
  0x0b, 0x10, 0x07, 0x00, 0xf5, 0xf6, 0x0c, 0xfc, 0x04, 0xf6, 0xf8, 0xfe,
  0x02, 0x08, 0x07, 0xf6, 0x11, 0xf0, 0xf9, 0x0a, 0xf9, 0x0c, 0x0c, 0x07,
  0xf3, 0xed, 0xee, 0xec, 0xf2, 0x04, 0xf6, 0xfb, 0x03, 0x00, 0xec, 0x01,
  0x0e, 0xf4, 0x03, 0x12, 0xfe, 0x11, 0xf2, 0xf0, 0x02, 0x0c, 0xff, 0xf6,
  0x04, 0x12, 0xf7, 0xf1, 0x12, 0xfe, 0x03, 0xfc, 0xef, 0xf6, 0x0b, 0x00,
  0x0e, 0x0b, 0xf1, 0xee, 0xf7, 0x05, 0x0f, 0xf3, 0x11, 0xfa, 0x08, 0xf0,
  0xf9, 0x0c, 0xf1, 0xf1, 0xfa, 0x03, 0xfa, 0x06, 0xf1, 0xed, 0xf4, 0x0b,
  0x07, 0xec, 0x04, 0xfb, 0xee, 0xf0, 0xfc, 0x04, 0x0f, 0x0f, 0x08, 0x0e,
  0x08, 0x01, 0x09, 0xf1, 0x08, 0x0d, 0xef, 0x0e, 0xfa, 0xfa, 0x0e, 0xf6,
  0x12, 0xf8, 0x0f, 0xf2, 0xf8, 0xf5, 0x08, 0xf7, 0xfd, 0xf2, 0xec, 0xef,
  0xf9, 0x03, 0x11, 0xfc, 0xf1, 0x02, 0x09, 0xf3, 0x02, 0xf6, 0xef, 0xf7,
  0xed, 0x07, 0xf1, 0x0d, 0x00, 0xf7, 0x0c, 0xfa, 0x0c, 0x00, 0xed, 0xfd,
  0xed, 0x04, 0xf3, 0x0a, 0x05, 0x0a, 0x04, 0xff, 0xfa, 0xf6, 0xec, 0xf8,
  0xfe, 0xfe, 0x11, 0x09, 0xf5, 0xff, 0xee, 0x0b, 0xf1, 0xf6, 0x0c, 0x0f,
  0x11, 0x09, 0xf6, 0xf6, 0xfd, 0xee, 0xf4, 0xf0, 0xf9, 0xf2, 0x07, 0xfe,
  0xf9, 0x0b, 0x00, 0xfd, 0xff, 0xf9, 0xfa, 0xf4, 0xf9, 0xed, 0x0c, 0xf5,
  0xf2, 0x0b, 0x11, 0xff, 0x08, 0xee, 0x11, 0xf8, 0x00, 0xf6, 0x0e, 0xfb,
  0x10, 0x0b, 0xed, 0x08, 0x07, 0x13, 0xed, 0x06, 0xf3, 0xed, 0xef, 0x0c,
  0x11, 0xf4, 0xf0, 0x0e, 0x09, 0x08, 0x05, 0xf1, 0x00, 0x02, 0xfd, 0x11,
  0xf6, 0x10, 0xec, 0xf7, 0xfa, 0x13, 0x0a, 0x0c, 0x11, 0xfb, 0xfe, 0xed,
  0xfd, 0xf3, 0xff, 0x08, 0x12, 0xf4, 0x01, 0x0a, 0xf5, 0x07, 0x00, 0xf8,
  0x09, 0x02, 0x02, 0x0e, 0xf3, 0x12, 0x01, 0x04, 0xfb, 0xff, 0xf9, 0x11,
  0x01, 0x02, 0x0b, 0xfd, 0xff, 0x10, 0x0f, 0x0f, 0xf1, 0x05, 0x05, 0x00,
  0xee, 0xfe, 0x0b, 0x08, 0xf0, 0x0d, 0x08, 0xfc, 0xed, 0x0b, 0x0f, 0xf4,
  0xf5, 0xed, 0xf5, 0x0b, 0x05, 0xf0, 0xf5, 0x0b, 0x07, 0xff, 0x0a, 0x02,
  0x0c, 0x0d, 0x0e, 0x0a, 0x10, 0xf4, 0xf8, 0xfd, 0x00, 0xf1, 0x0f, 0x08,
  0xf8, 0xf7, 0x0b, 0xf9, 0xf8, 0x00, 0x0e, 0x02, 0x10, 0xf5, 0xf6, 0xf3,
  0x0e, 0x11, 0xef, 0x10, 0xfb, 0x08, 0x03, 0x02, 0x0d, 0xfb, 0xf5, 0x0a,
  0x0c, 0x0d, 0x01, 0xf9, 0x00, 0xf5, 0x05, 0x0c, 0x00, 0x0e, 0xfc, 0x0a,
  0x12, 0xfc, 0xf1, 0x10, 0x05, 0x0d, 0xfe, 0x0c, 0xf0, 0x09, 0x11, 0x00,
  0x00, 0xfc, 0xff, 0xf8, 0xf6, 0x11, 0x04, 0xfd, 0x02, 0xf4, 0xf2, 0x09,
  0x0a, 0x0e, 0xfa, 0xfb, 0xf4, 0xf7, 0x04, 0x03, 0xfa, 0x0a, 0x11, 0x03,
  0xfa, 0x03, 0x07, 0x00, 0xfa, 0x02, 0x05, 0x00, 0xec, 0xec, 0xee, 0xf4,
  0xfc, 0x12, 0xf4, 0x0f, 0x13, 0x02, 0xee, 0xee, 0xf5, 0xf5, 0x11, 0x02,
  0x03, 0xf5, 0xf9, 0xf2, 0x00, 0xf6, 0x13, 0xf5, 0xee, 0x0e, 0xef, 0xf5,
  0x13, 0x07, 0xff, 0x08, 0xf1, 0x0b, 0x0b, 0x13, 0xf2, 0x00, 0x04, 0xfd,
  0x04, 0xf9, 0x03, 0x13, 0x0a, 0xff, 0xf2, 0x0e, 0x08, 0xfa, 0xff, 0xee,
  0x11, 0x11, 0xf8, 0xf6, 0x0d, 0x0d, 0x0a, 0x13, 0xef, 0xf5, 0x03, 0x0d,
  0x0e, 0x09, 0xf3, 0x03, 0x08, 0x10, 0x11, 0xf8, 0x01, 0xef, 0x0b, 0x07,
  0xf3, 0x07, 0xf5, 0x00, 0xf2, 0xed, 0x00, 0xf6, 0xf9, 0x11, 0x10, 0x0e,
  0xef, 0xf9, 0x06, 0x12, 0x09, 0x0c, 0x10, 0x0a, 0xef, 0x09, 0x05, 0xff,
  0xee, 0x0f, 0x09, 0xf8, 0xf2, 0x10, 0x11, 0xf4, 0xf8, 0x01, 0xf9, 0xee,
  0x11, 0xf8, 0xef, 0x0e, 0x02, 0xec, 0xf8, 0x12, 0x03, 0x01, 0x13, 0xfc,
  0x05, 0x09, 0xf1, 0x12, 0x0c, 0x0e, 0x11, 0xf1, 0x0a, 0xf8, 0x12, 0xfd,
  0xf3, 0xfb, 0x07, 0xeb, 0xee, 0xec, 0xec, 0x02, 0xef, 0xf2, 0xfd, 0x05,
  0x05, 0x0f, 0xf2, 0xfc, 0xf8, 0xee, 0x10, 0xfd, 0x11, 0x0d, 0xed, 0x03,
  0xff, 0xf0, 0xfb, 0x09, 0x0e, 0x04, 0x0c, 0xf6, 0x10, 0x01, 0xf4, 0xf5,
  0x03, 0x0e, 0x04, 0xf5, 0xf0, 0x0e, 0xff, 0x10, 0x0d, 0xfa, 0xf0, 0x05,
  0xed, 0x11, 0xf6, 0x12, 0xf8, 0xf4, 0x0d, 0xff, 0xfc, 0x05, 0x0f, 0x0f,
  0x0d, 0xfc, 0xfd, 0x0c, 0xf6, 0x04, 0x03, 0xff, 0x0d, 0xf4, 0xf4, 0x0e,
  0x12, 0xf1, 0xfe, 0x11, 0x01, 0x10, 0x00, 0xf5, 0x09, 0xfc, 0xf1, 0xfe,
  0x0a, 0xff, 0xfc, 0xfc, 0xee, 0x08, 0x0c, 0xed, 0x06, 0xed, 0xf6, 0xfd,
  0xf3, 0x11, 0x03, 0xf5, 0xf8, 0x07, 0xfc, 0x03, 0x0a, 0xef, 0x0a, 0xf4,
  0x12, 0xfd, 0xee, 0xf5, 0x01, 0x03, 0x0e, 0xf0, 0xee, 0xf8, 0xf4, 0x05,
  0x01, 0xfe, 0xfa, 0x0c, 0x00, 0xf8, 0xfa, 0xfa, 0x06, 0xfe, 0x01, 0x09,
  0x03, 0xee, 0xf4, 0xfc, 0x08, 0xff, 0x09, 0xeb, 0x0f, 0xfb, 0x0f, 0x01,
  0x0f, 0xeb, 0xf4, 0xf8, 0xee, 0x0f, 0xef, 0x01, 0x01, 0xfa, 0x10, 0xfd,
  0x08, 0xf8, 0x08, 0x0b, 0xeb, 0xfa, 0xf1, 0xf5, 0x03, 0x0c, 0x10, 0x08,
  0x02, 0xf7, 0xf0, 0xf3, 0xff, 0xfa, 0xf6, 0xfd, 0xf3, 0x05, 0x08, 0x10,
  0x0d, 0xf6, 0x09, 0xf1, 0xf1, 0xfa, 0x10, 0x12, 0x11, 0xf9, 0xf4, 0xfa,
  0xfe, 0xfd, 0xfb, 0xf5, 0x10, 0x05, 0xfe, 0x03, 0xfd, 0xf5, 0xfd, 0x0d,
  0xf7, 0x01, 0xf6, 0x12, 0x01, 0x08, 0x03, 0x10, 0x0d, 0x02, 0x04, 0x04,
  0x03, 0xfd, 0xf2, 0xf7, 0xed, 0xef, 0xfc, 0x11, 0xec, 0xf8, 0xf6, 0xfd,
  0xef, 0xf3, 0xf7, 0xfb, 0xf3, 0xf1, 0xf2, 0xf3, 0xec, 0x00, 0xff, 0xf6,
  0xfd, 0x11, 0x0f, 0xf6, 0x11, 0x11, 0x00, 0xef, 0xf5, 0xfe, 0xf5, 0x10,
  0x04, 0xf9, 0x07, 0x02, 0xf5, 0xee, 0xf2, 0x08, 0xfb, 0x03, 0xf5, 0xf1,
  0x0d, 0x0f, 0xf6, 0x0d, 0x10, 0xf3, 0xeb, 0x0b, 0xfb, 0x0f, 0x02, 0x00,
  0xf0, 0x00, 0x03, 0xf0, 0xf3, 0xf0, 0x06, 0x0e, 0xf6, 0xff, 0x05, 0x02,
  0x0b, 0xfd, 0x0b, 0xf5, 0xf0, 0x09, 0x12, 0xec, 0xed, 0xf1, 0x05, 0x05,
  0xf7, 0xf3, 0x11, 0xfa, 0xec, 0xf2, 0x0c, 0x0b, 0xeb, 0x02, 0x09, 0xfe,
  0x11, 0xf6, 0xf5, 0xf4, 0xf2, 0x0c, 0x06, 0xf9, 0xfc, 0xfe, 0xf5, 0xf8,
  0xf9, 0x10, 0x08, 0x02, 0x02, 0xef, 0x08, 0x11, 0x06, 0xf8, 0x00, 0xfa,
  0xfc, 0x01, 0x09, 0x11, 0xf2, 0x0f, 0x12, 0x04, 0x0f, 0xfa, 0xf5, 0x12,
  0xfa, 0xf4, 0xf8, 0x0c, 0xfb, 0x07, 0xed, 0x09, 0x0f, 0xfb, 0x0e, 0xed,
  0x01, 0x04, 0xf0, 0xee, 0x0a, 0x07, 0x12, 0xff, 0x0d, 0x08, 0x0c, 0x04,
  0x06, 0xff, 0x06, 0x08, 0x0d, 0x01, 0x01, 0x02, 0xf0, 0x0e, 0x04, 0x05,
  0x11, 0x07, 0xed, 0xee, 0xf7, 0x09, 0x00, 0x0b, 0x03, 0x07, 0x00, 0x07,
  0x0c, 0x03, 0x0d, 0xed, 0x0c, 0xf7, 0x00, 0xf5, 0x06, 0xef, 0xff, 0xfe,
  0x05, 0x0b, 0x0c, 0x03, 0x00, 0xf7, 0x12, 0x02, 0xfc, 0xee, 0x08, 0x11,
  0x0c, 0xee, 0xf5, 0x0e, 0x13, 0xf6, 0xff, 0xf8, 0xee, 0x00, 0xfe, 0xed,
  0xfb, 0x0a, 0x04, 0x0b, 0xf1, 0xed, 0x0b, 0x0c, 0x10, 0xef, 0x0e, 0x10,
  0xf3, 0xec, 0x11, 0x09, 0x04, 0x01, 0x02, 0xf0, 0x05, 0x0f, 0x11, 0x0c,
  0xfb, 0x0a, 0xec, 0xf6, 0xfb, 0x12, 0xee, 0x03, 0xf9, 0x01, 0xfd, 0x03,
  0xf2, 0x10, 0xfc, 0x11, 0x11, 0xfa, 0xed, 0x10, 0xf7, 0x0c, 0xfa, 0x0c,
  0xef, 0x05, 0x11, 0x01, 0x03, 0xf8, 0xfd, 0xed, 0x11, 0xfc, 0x0e, 0x02,
  0x07, 0xfe, 0x12, 0x01, 0xf7, 0xf6, 0xf8, 0x01, 0x02, 0x0a, 0xf9, 0x02,
  0x11, 0xfe, 0x07, 0xf5, 0xf1, 0x0f, 0xee, 0xf6, 0x06, 0x0c, 0xf8, 0xfe,
  0xfc, 0xf7, 0x00, 0x05, 0x09, 0x0f, 0xef, 0xed, 0xf1, 0xf8, 0xf9, 0x0e,
  0x12, 0xf2, 0x03, 0xfd, 0x05, 0x11, 0xf8, 0xfd, 0x0d, 0x13, 0x0e, 0xfa,
  0x0f, 0xff, 0xfb, 0xf1, 0x09, 0x0d, 0xf2, 0xfd, 0xfa, 0x0f, 0x10, 0xfd,
  0xf8, 0x03, 0xef, 0xf2, 0x05, 0x0f, 0xf3, 0xf0, 0xed, 0x02, 0xf9, 0xfd,
  0x05, 0x0b, 0x00, 0x03, 0x0b, 0x12, 0xf6, 0x0b, 0xed, 0x01, 0xfa, 0x13,
  0xeb, 0xee, 0x12, 0xf0, 0x0b, 0xf2, 0xf5, 0x01, 0x06, 0x11, 0x12, 0xec,
  0x01, 0xfe, 0x06, 0x11, 0x06, 0xf0, 0x06, 0xf4, 0xed, 0xf3, 0xfe, 0x06,
  0x12, 0x05, 0xfb, 0xfb, 0x03, 0x0a, 0xf1, 0x11, 0x0d, 0x10, 0x00, 0xf5,
  0xfa, 0xf6, 0x08, 0x02, 0x04, 0x0e, 0xf0, 0x0d, 0x06, 0x01, 0xed, 0xf4,
  0xee, 0xf2, 0x01, 0xfa, 0xfc, 0x07, 0x0c, 0xfd, 0x02, 0xf1, 0x00, 0xfc,
  0x08, 0x11, 0xfa, 0xfb, 0xf2, 0x0a, 0xef, 0xf2, 0x01, 0xfd, 0xef, 0x0e,
  0x0b, 0x06, 0x08, 0xff, 0x07, 0xfc, 0x0b, 0xf9, 0x11, 0xfc, 0xf7, 0x06,
  0xee, 0xef, 0x0b, 0xfc, 0x0d, 0x12, 0xed, 0xec, 0xf1, 0x08, 0x0a, 0x0d,
  0x04, 0xf9, 0x0a, 0x0b, 0x01, 0x06, 0xf2, 0xfd, 0xed, 0x12, 0xfd, 0xfe,
  0x02, 0xf9, 0xfc, 0xf2, 0x0f, 0x07, 0xed, 0xee, 0xee, 0xf4, 0x04, 0x02,
  0xf2, 0xf6, 0x05, 0x09, 0x01, 0x00, 0xf8, 0x09, 0x08, 0x01, 0x03, 0xf8,
  0x04, 0x01, 0x13, 0x06, 0x10, 0x06, 0x01, 0xf7, 0x06, 0x03, 0xf8, 0x04,
  0xfb, 0xfc, 0x0c, 0x0e, 0x0d, 0xf5, 0x05, 0x05, 0x04, 0x0a, 0x0d, 0x12,
  0x10, 0x06, 0xef, 0xfb, 0xee, 0xf0, 0x00, 0x08, 0x0a, 0xf3, 0xfe, 0x0f,
  0x09, 0xf7, 0x0d, 0x0d, 0x13, 0xf2, 0x04, 0x11, 0xf4, 0x0e, 0xf9, 0x10,
  0x05, 0x08, 0xf4, 0x04, 0xfa, 0xf3, 0x0c, 0xfd, 0xff, 0xf8, 0x04, 0xf5,
  0xfd, 0xf6, 0x0d, 0x13, 0xed, 0xf6, 0x12, 0xed, 0x07, 0x0a, 0xfe, 0x0b,
  0xf7, 0xff, 0x04, 0xfb, 0xfa, 0x13, 0xfe, 0xfe, 0x05, 0xfd, 0x0a, 0x11,
  0x02, 0x01, 0x05, 0x07, 0x08, 0x12, 0x05, 0xef, 0x0c, 0x10, 0x04, 0xff,
  0x09, 0xef, 0xfb, 0xed, 0x0c, 0x08, 0x0f, 0x05, 0x0e, 0x12, 0x04, 0xfe,
  0x0b, 0x05, 0xed, 0xfb, 0xf2, 0xed, 0x0a, 0x12, 0x0e, 0x09, 0xfe, 0x0c,
  0x10, 0xf2, 0x09, 0xfc, 0x03, 0x05, 0x06, 0x02, 0xff, 0xfd, 0xed, 0x04,
  0xfa, 0x13, 0xed, 0xf9, 0x07, 0xfc, 0xf1, 0x0b, 0xf6, 0xeb, 0x03, 0xfb,
  0x05, 0x0b, 0x12, 0xf8, 0xec, 0x05, 0x0b, 0xec, 0x0e, 0xf1, 0xf4, 0xf6,
  0xf4, 0xf2, 0x01, 0x12, 0xfb, 0x08, 0x01, 0xf7, 0xf3, 0x12, 0x03, 0x12,
  0x04, 0x13, 0x0b, 0x08, 0xfa, 0xfb, 0x09, 0x03, 0xfc, 0xf3, 0x0e, 0xed,
  0xf8, 0x04, 0xf8, 0xf5, 0xfc, 0x11, 0xf6, 0xf4, 0x01, 0x00, 0xeb, 0x11,
  0x03, 0xf1, 0x07, 0x12, 0x0e, 0xfa, 0xf6, 0xff, 0x04, 0x11, 0xfb, 0xfe,
  0xfc, 0x03, 0xfb, 0x08, 0xfb, 0xf3, 0x10, 0x04, 0xf6, 0xee, 0xef, 0xf6,
  0xfb, 0x0a, 0x04, 0x0f, 0xee, 0x01, 0x02, 0xee, 0xf4, 0x08, 0x05, 0xee,
  0x0d, 0x05, 0xfc, 0xf8, 0x04, 0xfb, 0xf0, 0xf8, 0x0a, 0xf2, 0x07, 0x07,
  0xfc, 0xff, 0xf9, 0x09, 0xfb, 0x01, 0x07, 0xed, 0x04, 0xed, 0xf7, 0xff,
  0x0a, 0xf5, 0x01, 0x0e, 0x0b, 0x05, 0xfe, 0xfe, 0xf9, 0x0b, 0xfe, 0x03,
  0x05, 0xf2, 0x10, 0x00, 0xed, 0x10, 0xf8, 0x13, 0x11, 0x0e, 0x03, 0x0a,
  0xf8, 0xff, 0xf3, 0xfa, 0x0d, 0x0c, 0xf8, 0xff, 0x0f, 0x0b, 0x0c, 0xf8,
  0x03, 0xfe, 0xfc, 0xf2, 0x0c, 0x01, 0xfb, 0x0d, 0x03, 0xfd, 0x0d, 0xfd,
  0x0a, 0x0b, 0xfe, 0xfd, 0x02, 0xee, 0xfe, 0xf6, 0xfc, 0x0d, 0x0d, 0xfa,
  0x12, 0x06, 0x0d, 0xf3, 0x02, 0x0c, 0xf3, 0xff, 0x07, 0xfa, 0xf5, 0x04,
  0xf3, 0xfc, 0x09, 0xee, 0xf8, 0x04, 0xfd, 0x0b, 0x10, 0xfa, 0xfc, 0x11,
  0xfc, 0xf3, 0x0b, 0xf2, 0x13, 0xed, 0x04, 0xf2, 0x09, 0x06, 0xf9, 0x00,
  0xef, 0x08, 0x05, 0xfa, 0x04, 0xf7, 0x0c, 0x08, 0x09, 0xf6, 0x12, 0x03,
  0xf5, 0x01, 0x09, 0xf5, 0xf6, 0xf2, 0x06, 0xf5, 0x02, 0xfc, 0x08, 0x10,
  0xf1, 0x0b, 0xf4, 0x09, 0x11, 0xf2, 0x0d, 0xed, 0x12, 0xf0, 0x04, 0xf6,
  0xed, 0xfb, 0xf3, 0x0b, 0xff, 0xfa, 0xec, 0xf5, 0x10, 0x0e, 0x07, 0x12,
  0xec, 0xf4, 0xef, 0x13, 0x09, 0x09, 0xff, 0xf9, 0xf5, 0xf6, 0x0a, 0x08,
  0xff, 0x07, 0x0b, 0xfc, 0x07, 0x04, 0xfa, 0x00, 0xf8, 0xf2, 0xf6, 0xef,
  0xf4, 0x0c, 0x0b, 0x0a, 0x05, 0x10, 0x04, 0x04, 0x03, 0xfa, 0x07, 0xed,
  0xf0, 0xf8, 0x10, 0xfc, 0x09, 0x09, 0x0a, 0x0b, 0xf8, 0xf8, 0x09, 0xff,
  0x03, 0xf3, 0x04, 0xf3, 0x11, 0xff, 0xf7, 0x0c, 0x08, 0x04, 0xf8, 0x0c,
  0xf8, 0xff, 0x0c, 0xed, 0x0b, 0xf6, 0xef, 0xf3, 0x00, 0xfb, 0xee, 0xfa,
  0xf6, 0xf5, 0xed, 0x12, 0x07, 0x05, 0x00, 0x07, 0x06, 0x00, 0x0f, 0x0f,
  0x06, 0xee, 0xf0, 0xf4, 0xf2, 0x13, 0xed, 0x0f, 0xfb, 0x0e, 0x09, 0xf5,
  0xf1, 0xfa, 0xf6, 0x09, 0x00, 0xfe, 0xf6, 0xf7, 0x11, 0xed, 0x08, 0xfb,
  0x0d, 0xf6, 0x0b, 0x02, 0xf6, 0xef, 0x0e, 0xee, 0xf6, 0xf1, 0x04, 0xf4,
  0xfd, 0x00, 0x13, 0xef, 0xef, 0x0a, 0x0e, 0xf6, 0x0c, 0xf5, 0x13, 0x08,
  0x02, 0xf9, 0xf0, 0x08, 0xec, 0x08, 0x0e, 0xf8, 0xfe, 0x12, 0x0b, 0xfc,
  0x13, 0x0c, 0xf5, 0xf4, 0x05, 0x09, 0xf0, 0xf6, 0x0d, 0xed, 0x0a, 0x03,
  0xf7, 0xfe, 0xf3, 0x08, 0xfa, 0xee, 0xee, 0xee, 0xf6, 0xfb, 0x07, 0x0f,
  0xff, 0xed, 0xf2, 0x07, 0xf6, 0x05, 0xfd, 0x0c, 0xf6, 0xf8, 0xf1, 0xfc,
  0x06, 0xf2, 0x00, 0xf6, 0x10, 0xef, 0x0d, 0xee, 0xed, 0x13, 0xfc, 0xf5,
  0xfc, 0xf6, 0xf0, 0xfa, 0xed, 0xf4, 0xf9, 0xef, 0xef, 0x05, 0xed, 0xec,
  0xfb, 0x0d, 0x07, 0x0a, 0x01, 0x0a, 0xf9, 0xf3, 0xf9, 0x0a, 0x11, 0xf1,
  0xfd, 0x01, 0xf6, 0x12, 0xfe, 0x0a, 0xed, 0xed, 0xf2, 0x08, 0xed, 0xf1,
  0xf9, 0xf5, 0x05, 0x0f, 0xec, 0x13, 0x10, 0xfe, 0xf9, 0x04, 0xfe, 0xed,
  0xfa, 0x0b, 0xfa, 0x00, 0xf2, 0x08, 0x03, 0xf3, 0x09, 0xfc, 0x0a, 0x0b,
  0xee, 0xed, 0xee, 0xfc, 0x0a, 0xf8, 0x09, 0xef, 0x0e, 0x07, 0xef, 0x07,
  0xfe, 0xf6, 0xee, 0x13, 0x02, 0x02, 0xfc, 0x0a, 0xfe, 0x01, 0xf5, 0x05,
  0x12, 0xf9, 0x01, 0xfb, 0x06, 0x12, 0x0d, 0x00, 0x0e, 0xfe, 0x10, 0x0f,
  0x08, 0x0e, 0xf7, 0xf7, 0xf9, 0xff, 0xfd, 0xf5, 0xff, 0xfc, 0x02, 0xf7,
  0x07, 0xec, 0x0b, 0x00, 0xee, 0xed, 0xed, 0xf3, 0xf5, 0xfe, 0x0b, 0xff,
  0x11, 0x05, 0x08, 0x09, 0xf5, 0x0b, 0x07, 0x05, 0x07, 0x02, 0x0b, 0xf7,
  0x06, 0xf4, 0x00, 0xfa, 0x0d, 0x0a, 0xf9, 0xff, 0xf8, 0x0b, 0x0d, 0xec,
  0xef, 0x10, 0xfb, 0xf6, 0xec, 0xf1, 0xf7, 0xed, 0x12, 0x09, 0xf9, 0xee,
  0xf8, 0xec, 0xfe, 0x0b, 0x12, 0x06, 0x09, 0x13, 0x01, 0xef, 0x02, 0xfb,
  0xec, 0xf8, 0xfd, 0xfe, 0xf4, 0x04, 0x06, 0x03, 0xf9, 0xf1, 0xf3, 0xfc,
  0x02, 0xfa, 0x04, 0x02, 0x00, 0xf8, 0xf1, 0x0b, 0xf2, 0xf8, 0xee, 0x02,
  0x0e, 0xf8, 0xec, 0xf1, 0xfc, 0x07, 0xf1, 0xf2, 0xf1, 0x07, 0xf4, 0x12,
  0xff, 0xff, 0x0f, 0xff, 0x0d, 0xee, 0xf9, 0xf7, 0x06, 0xff, 0xf8, 0xfb,
  0xfa, 0xf3, 0x01, 0xff, 0x11, 0x0c, 0xf0, 0x0a, 0xec, 0xfe, 0xf2, 0x0f,
  0xf3, 0x02, 0xf7, 0xf9, 0x0e, 0xfa, 0xf9, 0x08, 0x03, 0x01, 0x0d, 0xf4,
  0xfe, 0x0e, 0xf5, 0x0c, 0x01, 0x03, 0x03, 0x00, 0x11, 0xf7, 0x0f, 0x05,
  0x03, 0x09, 0xf5, 0xf9, 0x0b, 0x09, 0x04, 0xf5, 0xee, 0xff, 0x06, 0xfe,
  0xf3, 0xfa, 0x07, 0x02, 0xf0, 0xfc, 0xee, 0xfc, 0xec, 0x0f, 0x0f, 0xfb,
  0x11, 0x06, 0xfd, 0x08, 0x0e, 0xfc, 0x12, 0xfa, 0x06, 0x02, 0x05, 0xfb,
  0xf5, 0x11, 0x0e, 0xed, 0xf4, 0x01, 0xf7, 0xee, 0xf1, 0xf3, 0x01, 0x0a,
  0x07, 0xf9, 0xff, 0x00, 0x02, 0xef, 0xf9, 0x00, 0xfc, 0x0b, 0x11, 0xfc,
  0x11, 0x04, 0xf0, 0x0b, 0x05, 0x09, 0x0f, 0xf9, 0xf0, 0xef, 0x11, 0x0e,
  0x0f, 0xf3, 0xf3, 0x0f, 0x0c, 0x06, 0xf6, 0xfe, 0xff, 0x0c, 0x02, 0xfd,
  0xef, 0x12, 0xef, 0x12, 0x07, 0x06, 0xf6, 0x0c, 0xf5, 0x0e, 0x08, 0x05,
  0xff, 0xfa, 0xec, 0x08, 0xef, 0x0d, 0xf1, 0xf6, 0xf1, 0x0c, 0x0b, 0xed,
  0x0b, 0xf9, 0xf0, 0x09, 0x0f, 0x05, 0x01, 0x09, 0xee, 0x0b, 0x00, 0x0f,
  0x04, 0x05, 0x02, 0x11, 0xf8, 0x0d, 0xef, 0xf9, 0x0a, 0xf1, 0x0e, 0xfc,
  0x08, 0x10, 0xf9, 0x0f, 0x00, 0x00, 0x11, 0x05, 0xf8, 0xfa, 0xee, 0x0e,
  0x11, 0x03, 0xff, 0xf8, 0xfa, 0x04, 0x05, 0xfb, 0xfb, 0xfa, 0x0c, 0xec,
  0x04, 0x07, 0xf2, 0xf1, 0xff, 0x0f, 0xf6, 0x02, 0xf8, 0x0b, 0xec, 0xfe,
  0x06, 0x10, 0x0c, 0xf8, 0xf5, 0xf2, 0x03, 0x0a, 0xfd, 0xed, 0xf5, 0xef,
  0xf7, 0xf5, 0xf7, 0xf2, 0xf1, 0x0c, 0xf5, 0x01, 0xf1, 0xef, 0x04, 0x0e,
  0x00, 0x04, 0x0b, 0xec, 0xff, 0xfb, 0x01, 0x07, 0xec, 0x05, 0xfc, 0xff,
  0x0e, 0xfa, 0x0b, 0xed, 0xf1, 0x05, 0x05, 0xf6, 0x10, 0x12, 0xed, 0x11,
  0x02, 0xf3, 0x0a, 0x01, 0xfd, 0xff, 0xec, 0x07, 0x13, 0xee, 0xf3, 0x04,
  0x0b, 0xfa, 0x0a, 0x00, 0x08, 0xfd, 0xfc, 0xff, 0x0e, 0xee, 0x00, 0xf6,
  0x02, 0xfb, 0x03, 0xf8, 0x10, 0x11, 0x02, 0x09, 0xfe, 0xf2, 0x0a, 0xfe,
  0xf4, 0xf3, 0x08, 0x0b, 0x05, 0x01, 0x01, 0x0e, 0xfb, 0x10, 0x08, 0xf1,
  0xf8, 0xf7, 0xef, 0x03, 0x0c, 0xf7, 0xf0, 0x10, 0x04, 0x01, 0x07, 0x06,
  0xf3, 0xf6, 0x10, 0xfa, 0xfd, 0x09, 0xfd, 0xfc, 0x06, 0x0a, 0x01, 0x0a,
  0xf6, 0xf7, 0xf9, 0xee, 0x05, 0x05, 0xee, 0x10, 0xf9, 0xed, 0xf0, 0xf8,
  0xf9, 0x12, 0xf1, 0xf1, 0x04, 0x10, 0x02, 0xec, 0xf3, 0x06, 0xee, 0x00,
  0x0a, 0x07, 0x0d, 0x03, 0xfa, 0xf3, 0x03, 0x00, 0xed, 0xec, 0xfc, 0xee,
  0xec, 0xf4, 0x06, 0xef, 0x07, 0x0a, 0x0a, 0xef, 0x04, 0x12, 0xfe, 0x0b,
  0x0a, 0x04, 0x08, 0xfd, 0xff, 0x0d, 0x0f, 0x04, 0xfe, 0x03, 0xf8, 0x07,
  0x09, 0x01, 0x09, 0x10, 0x03, 0x04, 0x0e, 0x0f, 0x08, 0x0c, 0xf1, 0xfe,
  0x04, 0xed, 0xf8, 0x0f, 0xff, 0x05, 0xf7, 0x04, 0x05, 0xf8, 0xf4, 0x10,
  0x0c, 0x0f, 0xf6, 0xf2, 0xee, 0x01, 0xff, 0x07, 0xfd, 0x0e, 0x0c, 0xf8,
  0xf4, 0x01, 0xef, 0x11, 0x0d, 0xef, 0x0e, 0x00, 0xf2, 0x10, 0xf2, 0xff,
  0x12, 0xf1, 0xf5, 0x0b, 0x13, 0xf5, 0x05, 0x13, 0x0f, 0xee, 0xf7, 0x11,
  0xee, 0x06, 0xef, 0x11, 0x0a, 0x0a, 0xf9, 0x03, 0x09, 0x09, 0xf5, 0x07,
  0xee, 0x03, 0x0c, 0xf9, 0x0e, 0xfb, 0xf2, 0x11, 0xfa, 0x04, 0x08, 0xf3,
  0x10, 0xfc, 0x06, 0x11, 0x06, 0x01, 0xf1, 0xed, 0x05, 0x10, 0x06, 0x12,
  0x03, 0x00, 0x00, 0x01, 0xed, 0x04, 0x06, 0x03, 0xf5, 0x03, 0x05, 0x02,
  0x04, 0xf0, 0xf3, 0xff, 0xff, 0x05, 0xec, 0xfb, 0xfa, 0xef, 0xfd, 0xec,
  0xfa, 0xf8, 0x11, 0x0f, 0xff, 0xf8, 0xf4, 0xed, 0xf3, 0xf1, 0x07, 0x02,
  0xf9, 0x06, 0x03, 0xed, 0x06, 0x06, 0x0c, 0xf4, 0x04, 0x0e, 0xf8, 0xf1,
  0x11, 0xf1, 0xff, 0xfd, 0x06, 0x0b, 0x10, 0xf6, 0x00, 0xec, 0x0b, 0x09,
  0x01, 0x0d, 0x01, 0x01, 0x0b, 0xf1, 0xf2, 0x0b, 0x10, 0x04, 0x06, 0x0a,
  0x07, 0x0a, 0x08, 0x05, 0xf2, 0x0d, 0x07, 0xfd, 0x08, 0x05, 0xf6, 0xf5,
  0x0a, 0xfc, 0x02, 0xfc, 0x0d, 0xf2, 0xfa, 0xfa, 0xed, 0x09, 0xf7, 0x09,
  0x0f, 0x06, 0x00, 0xf0, 0xf1, 0xf6, 0xf6, 0x06, 0x04, 0x12, 0x0b, 0xf5,
  0xf3, 0xee, 0xf9, 0x13, 0xef, 0x03, 0xec, 0x06, 0x11, 0xec, 0x09, 0xfa,
  0x05, 0xef, 0x04, 0xef, 0x02, 0x05, 0x01, 0xf9, 0x0a, 0x0d, 0x01, 0xf3,
  0x04, 0x00, 0x08, 0xf8, 0xf5, 0xf3, 0x0b, 0x12, 0x0a, 0x11, 0x06, 0x0b,
  0x0c, 0x10, 0xed, 0x01, 0xf9, 0x06, 0xf0, 0xf7, 0x08, 0xee, 0xf0, 0x08,
  0x06, 0xf1, 0xf2, 0xf9, 0xfe, 0x0f, 0xf1, 0xfc, 0x0e, 0xfd, 0xfa, 0xfc,
  0xf5, 0xee, 0xfb, 0x04, 0xf5, 0xff, 0xf2, 0x11, 0xf9, 0x0c, 0xf0, 0x02,
  0x0b, 0x0e, 0x01, 0xf5, 0x0f, 0x0d, 0x0d, 0x0d, 0xf3, 0xef, 0xfd, 0xee,
  0x0f, 0x0d, 0xff, 0xf7, 0xf3, 0xff, 0x06, 0xfc, 0x06, 0xf2, 0x04, 0xf3,
  0x0a, 0xfe, 0x09, 0x0f, 0x0b, 0x10, 0xfa, 0xfd, 0x0e, 0xf9, 0x04, 0xf0,
  0xfa, 0x11, 0x0b, 0xfa, 0x02, 0xf1, 0xef, 0x07, 0xef, 0xfa, 0xfc, 0xee,
  0x00, 0x0b, 0xf2, 0x0d, 0x04, 0xfa, 0xf5, 0xf2, 0xfa, 0xf5, 0x07, 0xf8,
  0xfd, 0xee, 0xfd, 0x0e, 0xf2, 0xfe, 0xf3, 0x02, 0xf0, 0xed, 0xf3, 0x06,
  0xf2, 0x11, 0x03, 0xed, 0xef, 0x11, 0xf4, 0x08, 0x08, 0x05, 0x0d, 0x05,
  0x0d, 0x0b, 0x0b, 0x13, 0xed, 0x0b, 0xf2, 0x11, 0xef, 0xfd, 0x10, 0xed,
  0x04, 0xfd, 0x01, 0xf2, 0xfc, 0xf6, 0x0e, 0x07, 0xee, 0x13, 0x10, 0xf9,
  0xed, 0xed, 0xed, 0xff, 0x02, 0xf7, 0x09, 0xf9, 0xf9, 0x06, 0x06, 0xfa,
  0xfe, 0xf1, 0x0a, 0x02, 0x09, 0xee, 0xf5, 0xff, 0xfa, 0x08, 0x02, 0xef,
  0x06, 0xee, 0xfc, 0x0c, 0x04, 0x06, 0x0a, 0xfd, 0x05, 0x13, 0x05, 0xf9,
  0x0e, 0x09, 0x08, 0xf9, 0x0a, 0x0b, 0xfe, 0x04, 0x10, 0x01, 0xfe, 0x0f,
  0xf4, 0xff, 0xf6, 0x02, 0x08, 0x04, 0xf2, 0x04, 0xf3, 0x04, 0xec, 0xef,
  0xf9, 0xfb, 0x0e, 0x06, 0xfe, 0xf0, 0x12, 0xed, 0x09, 0xf1, 0xfa, 0xf2,
  0x10, 0x07, 0x00, 0x02, 0x00, 0x0c, 0xf8, 0xfb, 0x01, 0x0d, 0x02, 0x09,
  0x0b, 0xfb, 0xec, 0xf3, 0xec, 0x0e, 0xfd, 0xf5, 0xfb, 0xfb, 0xff, 0x03,
  0xfc, 0xf3, 0x0e, 0x07, 0x10, 0x0f, 0xf5, 0x04, 0xf1, 0x12, 0xef, 0x12,
  0xf1, 0x11, 0x0a, 0xf7, 0x02, 0xfc, 0xfe, 0x10, 0xfa, 0x13, 0x11, 0x0f,
  0x03, 0xf5, 0x0f, 0x01, 0xf4, 0xfa, 0xfb, 0x04, 0x11, 0x05, 0x00, 0x05,
  0x12, 0xfe, 0xf6, 0x0e, 0x08, 0x08, 0xec, 0xf7, 0xfd, 0x0c, 0xee, 0x03,
  0x04, 0x0a, 0x04, 0xf8, 0x06, 0x12, 0xf4, 0xfc, 0xfc, 0x11, 0x07, 0xfd,
  0x00, 0xfb, 0xf0, 0x0f, 0x0e, 0x03, 0x10, 0x11, 0xfd, 0xff, 0xec, 0x04,
  0x0e, 0x11, 0x10, 0x0b, 0x12, 0xf6, 0xfa, 0xf7, 0xfd, 0x12, 0x0e, 0xff,
  0x0b, 0xee, 0xed, 0x0f, 0xfd, 0x03, 0xed, 0xfc, 0xed, 0xec, 0xf1, 0xf6,
  0x0d, 0x0d, 0x05, 0xef, 0xf9, 0xf0, 0x04, 0x06, 0x05, 0x06, 0x07, 0x12,
  0x02, 0xee, 0xf5, 0x06, 0xed, 0xf7, 0xf5, 0xf0, 0x06, 0xfe, 0x10, 0x0c,
  0x12, 0x07, 0xf9, 0x09, 0xec, 0x11, 0x10, 0x03, 0x05, 0xf9, 0xff, 0xff,
  0x11, 0xef, 0xf7, 0x01, 0x11, 0xee, 0x0d, 0x04, 0x10, 0x00, 0x09, 0x02,
  0x05, 0x13, 0xf3, 0xff, 0xf5, 0x01, 0xf7, 0xf2, 0xef, 0xf3, 0x04, 0xee,
  0xee, 0x00, 0x09, 0xf2, 0x09, 0x04, 0xed, 0xf1, 0xf0, 0x04, 0x08, 0xf2,
  0xef, 0x0b, 0x03, 0xf6, 0xf7, 0x10, 0x0e, 0x05, 0x0d, 0xed, 0xfb, 0x01,
  0x0b, 0xf2, 0xfb, 0xf8, 0xfe, 0xfd, 0x08, 0xfc, 0x0b, 0xed, 0xff, 0xf1,
  0x02, 0x09, 0x10, 0x11, 0x05, 0xf6, 0x01, 0x00, 0x0d, 0x01, 0xee, 0xff,
  0x03, 0xf0, 0x05, 0x10, 0xf0, 0x03, 0x10, 0x11, 0x11, 0xed, 0x04, 0x10,
  0x0a, 0x11, 0x05, 0x0a, 0xfa, 0x02, 0x05, 0xee, 0x12, 0x10, 0xef, 0x0e,
  0x11, 0x0c, 0xfd, 0xfe, 0x01, 0x04, 0x0c, 0xf2, 0x0a, 0x0c, 0xef, 0xef,
  0xfa, 0xed, 0xff, 0x0f, 0xf1, 0x07, 0x03, 0xf7, 0x0e, 0xf0, 0x0e, 0x08,
  0x0e, 0x00, 0x0e, 0xfe, 0x0c, 0x0d, 0x05, 0xfa, 0xf6, 0xf5, 0x12, 0xfd,
  0xfe, 0x10, 0xf3, 0x08, 0x11, 0xec, 0xed, 0x0a, 0xfb, 0x0f, 0x10, 0xed,
  0x12, 0xf3, 0xf5, 0xf9, 0x04, 0x07, 0x0e, 0xfb, 0x0e, 0xf8, 0x07, 0x13,
  0xf5, 0x13, 0x04, 0xf6, 0x0e, 0x08, 0xf5, 0xed, 0xfd, 0xee, 0x0e, 0xf5,
  0xf9, 0x0f, 0xfa, 0x0e, 0xf5, 0x0d, 0xfd, 0xf9, 0x10, 0x0c, 0x00, 0xf8,
  0x02, 0xfc, 0xec, 0x06, 0xf1, 0xfa, 0x02, 0xf4, 0xec, 0xfb, 0x11, 0x03,
  0x06, 0x10, 0x01, 0x0c, 0xf9, 0x0c, 0x0b, 0x07, 0xf4, 0x0b, 0x07, 0xf8,
  0xfb, 0xf0, 0xfb, 0x0e, 0xf0, 0xf6, 0x09, 0xfe, 0xfa, 0xf5, 0xf3, 0xf3,
  0x10, 0xfc, 0xf3, 0x07, 0x11, 0xf2, 0xfd, 0xfa, 0x0e, 0xee, 0x13, 0xf9,
  0xfd, 0x04, 0x03, 0x01, 0x0c, 0xfb, 0xf6, 0xef, 0xed, 0x10, 0xfb, 0xfd,
  0xfb, 0x08, 0xf1, 0x09, 0xfa, 0xee, 0xf3, 0xf9, 0xf8, 0x0a, 0xfe, 0xee,
  0xf5, 0x03, 0x0f, 0x07, 0xfe, 0x12, 0xf2, 0xfc, 0xf9, 0xf6, 0x03, 0xf5,
  0x07, 0x12, 0xfb, 0xf8, 0xf4, 0x0c, 0xf3, 0xf4, 0x0e, 0x02, 0x10, 0x08,
  0xec, 0xf3, 0x0a, 0xf1, 0x13, 0xf6, 0x05, 0x00, 0xfb, 0x02, 0xfb, 0xf2,
  0x0f, 0x03, 0xff, 0x04, 0xfa, 0x0b, 0x0a, 0xf2, 0xf6, 0xf7, 0xf5, 0xf1,
  0x0f, 0xff, 0x00, 0x0b, 0x06, 0x02, 0x07, 0xee, 0xf2, 0x12, 0xed, 0xf4,
  0x12, 0x07, 0xfd, 0x04, 0xee, 0x0f, 0xf4, 0x07, 0xfb, 0x05, 0xef, 0x0e,
  0x10, 0xef, 0xf9, 0xfa, 0x01, 0x03, 0x08, 0xf4, 0xf2, 0x0c, 0xfd, 0xf1,
  0x03, 0xf6, 0x09, 0x06, 0xef, 0xf5, 0xf9, 0xfd, 0xfa, 0x13, 0xfd, 0xf8,
  0x04, 0xee, 0x10, 0xf9, 0x12, 0x0c, 0x0f, 0xed, 0xfa, 0x0e, 0x01, 0x0a,
  0x03, 0xff, 0xfb, 0x05, 0xf6, 0x05, 0xfd, 0xf5, 0xf3, 0x00, 0xf9, 0xef,
  0xf8, 0x08, 0x0e, 0x08, 0xf3, 0x0f, 0x10, 0xf7, 0xfa, 0x01, 0x0c, 0x11,
  0xf8, 0xf2, 0x03, 0x0c, 0x00, 0xf5, 0x08, 0x14, 0xf1, 0xfe, 0x09, 0x07,
  0xf7, 0x03, 0x0c, 0x00, 0x0c, 0x11, 0xfc, 0x03, 0x13, 0x00, 0xfa, 0x01,
  0xee, 0x07, 0x08, 0x11, 0x00, 0x12, 0xf3, 0xfb, 0xfc, 0xf1, 0xf5, 0xf9,
  0xfb, 0xf3, 0x0a, 0xf5, 0x07, 0x13, 0xfa, 0x11, 0xf9, 0x04, 0x06, 0x10,
  0xf3, 0xfc, 0xf2, 0x0c, 0x08, 0xf0, 0xfa, 0xf9, 0x03, 0x0d, 0x11, 0x10,
  0xf2, 0xef, 0x10, 0x03, 0xfe, 0x00, 0xef, 0xf3, 0xf1, 0xfc, 0x03, 0x08,
  0x13, 0x05, 0x0e, 0x04, 0x02, 0x02, 0xf6, 0x01, 0xfa, 0x10, 0x12, 0xf5,
  0xef, 0x03, 0x04, 0xf1, 0xfa, 0xf7, 0x00, 0xee, 0x0e, 0x13, 0x01, 0x0e,
  0xfb, 0x04, 0x08, 0xf1, 0x13, 0x02, 0x0d, 0x06, 0xf7, 0xf8, 0x03, 0x03,
  0xf6, 0x13, 0x13, 0xf0, 0xee, 0xf6, 0xfc, 0xed, 0xf3, 0x06, 0xf3, 0xf8,
  0x11, 0xfb, 0xfd, 0x00, 0xf7, 0xf6, 0xfc, 0x07, 0xf5, 0xfc, 0xf7, 0x02,
  0xf9, 0xf8, 0x04, 0x0e, 0xf6, 0x0c, 0x0f, 0xf3, 0x01, 0x00, 0x12, 0xf1,
  0x0e, 0xf8, 0xee, 0xf8, 0xf2, 0x0c, 0x0c, 0xf7, 0x0d, 0xfe, 0xef, 0xef,
  0x0f, 0x0b, 0xff, 0xf9, 0xfa, 0xf0, 0x0b, 0xf9, 0xf2, 0xf0, 0x04, 0xfd,
  0x13, 0x03, 0xf6, 0x07, 0x0c, 0x13, 0xfa, 0x12, 0x07, 0x0e, 0x05, 0x12,
  0xf3, 0x11, 0x07, 0x14, 0x05, 0x07, 0xf7, 0x04, 0x10, 0xf3, 0xfc, 0x0c,
  0x03, 0xfd, 0xf1, 0xf2, 0xf2, 0xee, 0xfc, 0x0f, 0xfc, 0xf1, 0x01, 0xfb,
  0xf2, 0xfa, 0x0e, 0x04, 0x08, 0x0f, 0xff, 0x0a, 0x0c, 0xf9, 0xed, 0xf0,
  0xf2, 0xed, 0xff, 0x05, 0xf9, 0xec, 0x10, 0x05, 0xf2, 0xff, 0x12, 0x0d,
  0xf8, 0x07, 0xf3, 0x09, 0x04, 0x03, 0xf9, 0x10, 0x0b, 0x02, 0xfb, 0xfa,
  0xfc, 0xfe, 0xf6, 0xff, 0xf9, 0xf1, 0xf9, 0xff, 0x10, 0x0a, 0xfe, 0xef,
  0xf4, 0xfa, 0xf2, 0xee, 0x08, 0xed, 0xf7, 0x07, 0x0f, 0x06, 0x05, 0x0a,
  0xf0, 0x06, 0x0a, 0xed, 0x13, 0xff, 0x12, 0xf2, 0x0b, 0xf3, 0x10, 0x04,
  0x0c, 0xfc, 0x12, 0x0d, 0x0f, 0x0f, 0x04, 0xfc, 0x04, 0x13, 0x0d, 0x0f,
  0x0e, 0x10, 0xfb, 0x05, 0xfd, 0x0a, 0x13, 0x12, 0x00, 0xf6, 0x02, 0xed,
  0x09, 0x0c, 0x03, 0xee, 0xfa, 0xf4, 0x03, 0xef, 0xee, 0xfe, 0xed, 0xf9,
  0xfc, 0xfe, 0xed, 0x0d, 0x00, 0x08, 0xf1, 0xf9, 0x0e, 0xf9, 0xf9, 0x01,
  0x13, 0x0d, 0xf4, 0xee, 0x06, 0xf6, 0xff, 0xee, 0x0b, 0xf1, 0xf3, 0xfd,
  0xf6, 0x02, 0x0f, 0xef, 0x05, 0xf6, 0xf1, 0x03, 0x04, 0xf7, 0x03, 0x05,
  0x06, 0x02, 0x0f, 0xf2, 0x00, 0xef, 0x06, 0x05, 0xfc, 0x04, 0x0a, 0xf8,
  0x10, 0xfe, 0xf4, 0x0f, 0x0e, 0xf5, 0xfc, 0x10, 0x09, 0xf5, 0xfa, 0x06,
  0xee, 0xfa, 0x0f, 0x07, 0x03, 0xfe, 0xf7, 0xf5, 0x13, 0xed, 0xf4, 0xf8,
  0xf5, 0xf7, 0xf4, 0xf6, 0xf0, 0x00, 0x09, 0xf3, 0x05, 0x10, 0x06, 0xf9,
  0x0e, 0xee, 0x07, 0xf6, 0x10, 0xf9, 0xef, 0xf9, 0x0c, 0xf8, 0x0f, 0xf8,
  0x05, 0x01, 0x06, 0x06, 0x01, 0x13, 0xf5, 0xfa, 0xfd, 0xf8, 0xf6, 0xfe,
  0x0b, 0x01, 0x08, 0xfd, 0xf0, 0x07, 0x10, 0xef, 0xf0, 0x09, 0xed, 0xf9,
  0xf2, 0x00, 0xf0, 0x04, 0x0e, 0xf1, 0x03, 0xff, 0xf0, 0x04, 0xf6, 0x0a,
  0xf1, 0x0d, 0x0c, 0x03, 0x09, 0x13, 0xee, 0xf0, 0xed, 0xf1, 0xfa, 0xfa,
  0x10, 0x12, 0xf3, 0x0c, 0xef, 0x02, 0xfc, 0x0d, 0xff, 0xf5, 0xf7, 0x11,
  0x03, 0x0d, 0xf8, 0xfe, 0xed, 0x12, 0xf8, 0xf6, 0x07, 0x10, 0xf0, 0xee,
  0xfc, 0x13, 0xf2, 0xf0, 0xf4, 0xed, 0xf8, 0x13, 0xf9, 0xf0, 0x0f, 0xed,
  0xf5, 0xf5, 0xee, 0x0f, 0x10, 0xed, 0x05, 0xfe, 0xfa, 0x03, 0xf4, 0xfb,
  0xee, 0xec, 0x08, 0x0f, 0x0d, 0x0b, 0x08, 0x0c, 0xf8, 0xf4, 0x07, 0xf0,
  0xf7, 0xed, 0x0f, 0x0c, 0xf2, 0x00, 0x13, 0xee, 0xee, 0xef, 0x14, 0x13,
  0x09, 0xf7, 0x0a, 0x02, 0xed, 0x04, 0xfe, 0xf4, 0xf8, 0x01, 0x0e, 0x12,
  0xf1, 0xf8, 0x12, 0xf4, 0x03, 0x04, 0xf7, 0xed, 0xf2, 0x0d, 0x0e, 0xf2,
  0x07, 0x0e, 0xfb, 0x04, 0x14, 0xff, 0xf9, 0x0f, 0x00, 0x12, 0xfc, 0xf4,
  0x02, 0x12, 0xf3, 0x13, 0xf1, 0xf6, 0x13, 0x0a, 0x0b, 0xfe, 0x00, 0x0b,
  0xee, 0x0d, 0x09, 0xf7, 0xed, 0xf3, 0xfb, 0xf4, 0xf9, 0xee, 0xf2, 0x0d,
  0xfb, 0x09, 0x0e, 0xfd, 0x01, 0xf2, 0xf4, 0x13, 0x11, 0xfc, 0x0b, 0x12,
  0xed, 0xf8, 0x08, 0xed, 0xff, 0x0c, 0xf4, 0x10, 0xed, 0xf5, 0xf8, 0x0a,
  0xf6, 0x0f, 0xf9, 0x10, 0xf9, 0xfa, 0x0b, 0x04, 0xf9, 0xf2, 0x03, 0x0e,
  0x02, 0x0c, 0xf4, 0xf8, 0x02, 0x05, 0xf4, 0xed, 0x01, 0x01, 0x0e, 0xf8,
  0x0f, 0x11, 0xf5, 0xf8, 0x09, 0x0a, 0x05, 0x08, 0x03, 0xf3, 0xf8, 0xf0,
  0x0b, 0xee, 0xfa, 0xf6, 0x05, 0x07, 0x0a, 0xf9, 0x03, 0xee, 0xf4, 0xf6,
  0x02, 0x0c, 0x0c, 0xf0, 0x03, 0x06, 0xf0, 0x04, 0x0a, 0x02, 0xfd, 0x13,
  0x08, 0xfc, 0x06, 0x0b, 0xed, 0xf7, 0xf7, 0x0e, 0x0f, 0xed, 0x03, 0xf1,
  0x0a, 0xfb, 0xf8, 0xef, 0xee, 0xfb, 0x02, 0xee, 0xec, 0x02, 0x06, 0x04,
  0x12, 0x04, 0x11, 0xfe, 0xee, 0x12, 0x13, 0x13, 0x07, 0x0a, 0xf7, 0x00,
  0x07, 0xf9, 0x11, 0xf2, 0xf2, 0x0b, 0xf7, 0x0f, 0x05, 0x0b, 0x12, 0x09,
  0x0b, 0x00, 0x09, 0xf0, 0x01, 0xf9, 0x0b, 0xf1, 0x0d, 0xf9, 0xf0, 0x0a,
  0xf5, 0xee, 0xf5, 0xfc, 0x0d, 0xfd, 0x00, 0xf9, 0xf3, 0x0f, 0x05, 0xf7,
  0x0c, 0x12, 0x01, 0xfc, 0xff, 0xfb, 0x03, 0xf2, 0xf8, 0x12, 0xff, 0xf1,
  0xfd, 0x13, 0xfc, 0xfb, 0x0b, 0xf1, 0xf4, 0xfe, 0x03, 0xed, 0xf4, 0xf2,
  0xee, 0xf5, 0x07, 0xf8, 0xf3, 0x05, 0x0d, 0x0e, 0xf2, 0x12, 0x0f, 0x09,
  0xf4, 0x0f, 0xf8, 0xec, 0x05, 0x0a, 0x12, 0x13, 0xff, 0xfb, 0x04, 0x01,
  0xee, 0xf5, 0x03, 0x05, 0x0e, 0x06, 0x0f, 0xf4, 0x07, 0xf5, 0x02, 0xef,
  0x10, 0xfd, 0xf6, 0xf6, 0xf8, 0x04, 0x12, 0xf7, 0x0b, 0xfd, 0xee, 0xff,
  0xfa, 0x0c, 0xf5, 0x09, 0x0c, 0x0d, 0xf4, 0x0c, 0x07, 0x0e, 0xf5, 0xf8,
  0xfc, 0xed, 0x05, 0xec, 0x06, 0xee, 0xf7, 0x0a, 0x0c, 0xfa, 0xf9, 0xf2,
  0x02, 0xf2, 0xfb, 0x04, 0x12, 0x10, 0x11, 0xf5, 0x08, 0x0b, 0xfb, 0x06,
  0xf2, 0xf7, 0x0f, 0xed, 0xf3, 0x06, 0x07, 0xfd, 0x03, 0x0f, 0xf4, 0x12,
  0xf2, 0xfa, 0xfe, 0xff, 0xf3, 0xf7, 0x00, 0x05, 0xf2, 0xf0, 0x00, 0x10,
  0x00, 0xee, 0xf3, 0x07, 0x0d, 0x0e, 0xfe, 0xf4, 0xec, 0x07, 0xf4, 0x06,
  0x0e, 0xfa, 0x0e, 0xf0, 0xf0, 0xed, 0x09, 0xfc, 0xf6, 0x09, 0x12, 0xfa,
  0x0b, 0xf8, 0x02, 0xff, 0x0f, 0x00, 0x0d, 0xfd, 0x03, 0x07, 0x12, 0xfc,
  0x0c, 0xfc, 0xf8, 0xfa, 0x0f, 0x03, 0x00, 0xf1, 0x10, 0xec, 0x0d, 0x04,
  0xef, 0x00, 0x0d, 0x10, 0xfb, 0xed, 0x10, 0x0a, 0x08, 0xf3, 0x09, 0xfe,
  0x0d, 0xf4, 0x13, 0xfc, 0xf3, 0x07, 0xee, 0xfc, 0xf5, 0xfb, 0x12, 0xf0,
  0xf7, 0x12, 0xfd, 0x10, 0x0e, 0xee, 0xfa, 0xf3, 0xf3, 0xf6, 0xec, 0x0b,
  0xfa, 0x0d, 0x0a, 0x10, 0xf0, 0x06, 0x0a, 0x0d, 0x0d, 0x06, 0x00, 0xfa,
  0xf5, 0xfe, 0x01, 0xff, 0x10, 0xf6, 0x08, 0xfb, 0x02, 0xf3, 0xf6, 0x05,
  0xfe, 0xf6, 0x11, 0xfb, 0xf1, 0xf5, 0xf2, 0xed, 0x08, 0xff, 0x10, 0x01,
  0x0d, 0xef, 0x0e, 0xfd, 0xef, 0xf9, 0x0a, 0xff, 0x0e, 0xfd, 0xef, 0x0b,
  0x05, 0xee, 0x09, 0x00, 0xfa, 0xfe, 0xf8, 0xef, 0x0a, 0xf6, 0x11, 0x08,
  0x03, 0xfb, 0x0c, 0x11, 0xf2, 0x0a, 0x03, 0xed, 0x01, 0x05, 0xf2, 0x0f,
  0xf5, 0xfc, 0x03, 0xff, 0x0a, 0x08, 0xec, 0xf8, 0x12, 0xed, 0xf4, 0x10,
  0xf8, 0xfa, 0xf6, 0xf3, 0xfe, 0x10, 0xee, 0xef, 0xf6, 0xef, 0xee, 0x07,
  0xed, 0x0e, 0xf0, 0x0e, 0xf7, 0x0a, 0x11, 0x10, 0xfd, 0x09, 0xf7, 0x00,
  0xf0, 0xfc, 0x03, 0x08, 0x03, 0x0c, 0x04, 0xff, 0xf9, 0x0c, 0xef, 0xf5,
  0x03, 0xfc, 0xf2, 0x04, 0x07, 0x11, 0x00, 0xf9, 0x0e, 0xfe, 0xf4, 0xf8,
  0x0c, 0xf9, 0xf0, 0xf6, 0xfc, 0x0c, 0x03, 0x00, 0xff, 0x04, 0xf2, 0xfb,
  0xed, 0xfe, 0x04, 0xf3, 0xf4, 0x0d, 0x04, 0xed, 0xf0, 0x08, 0x03, 0xf7,
  0xfd, 0x12, 0xf0, 0xf6, 0xf3, 0x09, 0xf9, 0xec, 0xf7, 0xef, 0x0e, 0xf1,
  0x05, 0xf7, 0x10, 0xfb, 0x11, 0xf2, 0xf0, 0x0c, 0xf6, 0x08, 0x0a, 0x06,
  0xfc, 0xf0, 0xf2, 0xf1, 0x00, 0xee, 0xf9, 0x11, 0x0b, 0x07, 0x00, 0x04,
  0xed, 0x04, 0x0a, 0x09, 0xee, 0x0a, 0x00, 0x04, 0xf8, 0xef, 0x10, 0xec,
  0xfa, 0xed, 0x05, 0xf4, 0xf0, 0xf6, 0x12, 0x07, 0xfa, 0x02, 0x02, 0x0e,
  0xfb, 0xfb, 0xed, 0xf6, 0x00, 0x0f, 0x0a, 0x0f, 0xf1, 0xfd, 0x0e, 0x0f,
  0xfc, 0x0f, 0x0a, 0xed, 0x0d, 0x07, 0x01, 0xfa, 0xfc, 0xef, 0x0d, 0xff,
  0x0c, 0xf3, 0x08, 0x01, 0x08, 0x06, 0xf0, 0x07, 0xfb, 0x06, 0x00, 0x07,
  0x09, 0xfb, 0x10, 0xf3, 0x05, 0x0e, 0xfa, 0x00, 0xf1, 0xed, 0x00, 0x12,
  0xfe, 0x13, 0x0d, 0xfc, 0x08, 0x0f, 0xef, 0xf9, 0xff, 0x08, 0xf5, 0x09,
  0x08, 0x0e, 0xf1, 0x00, 0xed, 0xec, 0x12, 0xef, 0xfa, 0x0b, 0x06, 0xff,
  0x11, 0x0a, 0x11, 0x04, 0xf5, 0xfe, 0xfe, 0xec, 0xf2, 0xfc, 0x04, 0x10,
  0xf1, 0xff, 0xec, 0x08, 0xf5, 0x0d, 0x08, 0x09, 0x0f, 0xee, 0xf6, 0x07,
  0xff, 0xed, 0x07, 0x0e, 0xf2, 0xf6, 0x11, 0x05, 0xf9, 0xf6, 0xf7, 0xfe,
  0x12, 0xed, 0xfb, 0xee, 0x0c, 0x10, 0x09, 0xed, 0x10, 0xf7, 0xfc, 0x10,
  0x0a, 0xf9, 0x06, 0x05, 0x07, 0x06, 0x02, 0x0f, 0x0c, 0xee, 0xef, 0xf7,
  0xec, 0x02, 0xf1, 0xfe, 0x08, 0x0d, 0xf2, 0x10, 0xf7, 0x01, 0xfd, 0x12,
  0xff, 0x0f, 0xfe, 0xf7, 0xf2, 0x00, 0x05, 0xff, 0x10, 0xfb, 0xf4, 0x07,
  0x11, 0xec, 0x0f, 0x09, 0x0f, 0x0a, 0x0d, 0xf1, 0x02, 0xfd, 0xf5, 0x02,
  0x06, 0xfc, 0xfa, 0x01, 0x0f, 0xfd, 0xfb, 0x07, 0x06, 0xec, 0x0c, 0x0e,
  0xf8, 0xff, 0xf1, 0xfb, 0x0a, 0x03, 0x0d, 0x0a, 0x05, 0xf6, 0xfc, 0x0e,
  0xf4, 0x05, 0x0e, 0xf9, 0xfa, 0xfc, 0xf9, 0xf0, 0x12, 0xef, 0xff, 0x11,
  0x0f, 0x0b, 0x0c, 0x0a, 0x08, 0xfa, 0xf5, 0xf7, 0xfd, 0x08, 0xf7, 0xff,
  0xf0, 0xee, 0x08, 0x05, 0x0e, 0xf0, 0x0d, 0x11, 0x12, 0xfb, 0x02, 0x10,
  0x00, 0xee, 0xff, 0x03, 0xff, 0xff, 0xef, 0xf7, 0x03, 0x00, 0xfa, 0x0e,
  0x01, 0x0f, 0x0f, 0xfe, 0x06, 0x0a, 0x04, 0x0a, 0xec, 0x06, 0x02, 0xf3,
  0x06, 0xf5, 0xf0, 0x12, 0xf0, 0x0b, 0xf5, 0xf1, 0x0b, 0xef, 0xef, 0x11,
  0x06, 0xf3, 0xff, 0x0b, 0x0b, 0x01, 0xf2, 0x13, 0x06, 0x14, 0x0e, 0xf9,
  0xf0, 0x08, 0xf8, 0x0f, 0x01, 0xf0, 0xf9, 0x09, 0xff, 0x0e, 0x01, 0xf0,
  0x08, 0xf3, 0x11, 0xf9, 0xf1, 0x0a, 0x03, 0xf9, 0xfd, 0xf9, 0xef, 0xef,
  0x02, 0xf0, 0x14, 0x0e, 0x05, 0x03, 0xfb, 0x01, 0xf1, 0x03, 0xf8, 0xf1,
  0xf8, 0xfa, 0x04, 0x0a, 0x03, 0x09, 0x0b, 0x0b, 0xf6, 0x03, 0x06, 0x06,
  0x05, 0xfe, 0xff, 0xfe, 0xf8, 0x03, 0xfc, 0xfa, 0x08, 0x19, 0xfd, 0xf2,
  0xfc, 0xf0, 0x12, 0xf6, 0x11, 0x12, 0x10, 0xf8, 0xf8, 0x02, 0x03, 0x0e,
  0xef, 0x05, 0xf3, 0x00, 0x07, 0x0f, 0x07, 0xf5, 0x0a, 0x04, 0xf3, 0xf9,
  0xfa, 0x0f, 0x11, 0xf2, 0x0e, 0xf7, 0x0a, 0xf3, 0xf9, 0xf2, 0x09, 0x03,
  0xf5, 0x08, 0x07, 0xf0, 0x04, 0x08, 0x12, 0xfb, 0xff, 0x0c, 0xf2, 0xec,
  0xfc, 0x09, 0xf8, 0x0e, 0x12, 0xf3, 0xf2, 0x02, 0x0c, 0x01, 0x06, 0x02,
  0x01, 0xee, 0xf7, 0xee, 0xf8, 0xee, 0x0e, 0x0b, 0x03, 0x0e, 0xf2, 0xf9,
  0xfb, 0x0f, 0x0c, 0xee, 0xf5, 0xed, 0x0d, 0x07, 0xf0, 0x11, 0x07, 0x0a,
  0xf8, 0x0b, 0xee, 0xf1, 0x01, 0xfa, 0x13, 0xef, 0x12, 0xef, 0x02, 0x11,
  0xfd, 0x02, 0x08, 0xf2, 0x0b, 0xfe, 0x0e, 0x00, 0x01, 0xef, 0x13, 0x01,
  0x0c, 0xff, 0x06, 0x0a, 0x06, 0x0f, 0xfb, 0x11, 0xf0, 0xeb, 0xf2, 0xf4,
  0xff, 0x04, 0xfa, 0xf0, 0x0d, 0x12, 0xf6, 0xfd, 0xf3, 0x0e, 0xf7, 0x08,
  0x0a, 0x0d, 0x0c, 0xf2, 0xfe, 0x02, 0xef, 0x09, 0xfc, 0x10, 0xf4, 0xf5,
  0x06, 0xf5, 0x04, 0x04, 0xf8, 0xef, 0x01, 0xf8, 0x00, 0xea, 0xfb, 0x09,
  0xf0, 0x0c, 0xef, 0xf0, 0x0d, 0x12, 0xfe, 0xf9, 0xff, 0xeb, 0xfc, 0x0d,
  0x09, 0x0b, 0x07, 0x07, 0xfa, 0x12, 0x0a, 0xf8, 0x00, 0xf2, 0x05, 0x10,
  0xfc, 0xfe, 0xff, 0x06, 0xef, 0xf0, 0xee, 0xfd, 0xf2, 0xee, 0x13, 0xf3,
  0x12, 0x03, 0x0e, 0xfc, 0x14, 0x04, 0xf7, 0xf0, 0x0b, 0xf3, 0xee, 0xf2,
  0x09, 0x02, 0xfc, 0xf6, 0x0c, 0x01, 0xfb, 0x11, 0x10, 0xfe, 0xfe, 0x02,
  0x02, 0x08, 0x03, 0x06, 0x12, 0xf7, 0xf6, 0x05, 0x09, 0xf6, 0x13, 0x0c,
  0x0b, 0xf4, 0xf0, 0x0d, 0x02, 0xff, 0x0d, 0x0a, 0x0f, 0x0d, 0xee, 0xfa,
  0xfb, 0xf5, 0xf2, 0x11, 0xeb, 0x09, 0xf2, 0x06, 0x00, 0xeb, 0xf0, 0xf3,
  0xfa, 0x05, 0x0f, 0x00, 0x09, 0x00, 0xf1, 0x04, 0x06, 0xf4, 0xfc, 0xfc,
  0x0e, 0xee, 0xf5, 0x03, 0x04, 0xf3, 0xf2, 0x08, 0xfe, 0xf7, 0xf9, 0x0e,
  0x0e, 0xf7, 0x0f, 0xf2, 0xf9, 0xfa, 0x06, 0x10, 0xef, 0xfb, 0xec, 0xf3,
  0xf9, 0x00, 0xf4, 0xec, 0xf6, 0x01, 0xf1, 0x00, 0x11, 0xec, 0x00, 0xf6,
  0xee, 0x07, 0xfa, 0xf3, 0xf0, 0xf4, 0xfe, 0x12, 0xf5, 0xfb, 0x0e, 0xfc,
  0xef, 0x12, 0xf0, 0x0e, 0xef, 0x11, 0xfa, 0x09, 0x08, 0xef, 0xed, 0x0e,
  0xf9, 0x11, 0x00, 0x05, 0xfa, 0xf1, 0x0b, 0xf1, 0x0e, 0xf0, 0xf1, 0x03,
  0xfa, 0x11, 0x0f, 0x07, 0x04, 0x03, 0x00, 0xf3, 0x11, 0x04, 0xec, 0x09,
  0xfd, 0xfd, 0x04, 0xf3, 0xef, 0xfd, 0x0e, 0x00, 0x02, 0xf5, 0xf5, 0xf9,
  0xfa, 0x02, 0x02, 0x12, 0xf8, 0xfa, 0x07, 0xf7, 0x13, 0xfe, 0x10, 0x03,
  0x0d, 0x0c, 0x07, 0xf0, 0x0c, 0xf0, 0xf4, 0xfc, 0xf1, 0x12, 0x0f, 0x06,
  0x11, 0xec, 0x06, 0x08, 0xfd, 0xf4, 0xf4, 0xf6, 0xf5, 0x0f, 0x0b, 0xf5,
  0x10, 0xfb, 0xf2, 0x03, 0x11, 0x00, 0xf5, 0xf0, 0x09, 0xf9, 0xef, 0x0c,
  0x0b, 0x01, 0x02, 0xf4, 0x09, 0x0f, 0x11, 0x00, 0xf9, 0xfc, 0x0a, 0x0a,
  0x07, 0xf0, 0x08, 0xef, 0xf9, 0xfd, 0x01, 0x09, 0xfa, 0xf1, 0x0e, 0xf2,
  0xf4, 0x0d, 0x0d, 0xf9, 0x0b, 0xed, 0x03, 0xf1, 0xf7, 0x03, 0xf7, 0xf5,
  0x07, 0xf9, 0xfa, 0x03, 0xfa, 0x0e, 0x00, 0x04, 0x06, 0xfd, 0x11, 0x03,
  0x0c, 0x06, 0x05, 0x0c, 0xf8, 0xf0, 0xfe, 0x08, 0x00, 0xf7, 0xeb, 0xf2,
  0x02, 0xf1, 0x01, 0xf4, 0xf7, 0x0e, 0xef, 0xf0, 0x01, 0x12, 0x07, 0x04,
  0xed, 0xfe, 0xfa, 0x0e, 0xfc, 0xf6, 0xf3, 0x02, 0x02, 0xf2, 0x04, 0xf2,
  0x06, 0x08, 0x02, 0x0e, 0xf8, 0x04, 0x07, 0x05, 0x02, 0x11, 0x03, 0x04,
  0xf4, 0xee, 0x11, 0x0f, 0xf0, 0x11, 0x05, 0xec, 0xf1, 0xfa, 0xf5, 0xfc,
  0xec, 0xfc, 0xff, 0xf3, 0xfa, 0x03, 0xef, 0xfc, 0x13, 0x10, 0xfe, 0x06,
  0x00, 0x0a, 0xef, 0x0c, 0xf6, 0xf1, 0x11, 0x0f, 0xef, 0x0b, 0x12, 0x11,
  0xee, 0xfa, 0xf2, 0xf4, 0xf7, 0xef, 0x0d, 0x0a, 0x0f, 0xf0, 0x11, 0xff,
  0xf5, 0x06, 0x07, 0x07, 0x08, 0x07, 0xf9, 0x13, 0x12, 0x13, 0xeb, 0x0d,
  0xee, 0xf5, 0xfd, 0x06, 0xec, 0xfe, 0x13, 0xf1, 0xf6, 0xfe, 0x02, 0x11,
  0xfe, 0x10, 0x0f, 0x08, 0x05, 0x0d, 0x13, 0x04, 0x06, 0x07, 0x04, 0x12,
  0xf3, 0xff, 0xed, 0x0e, 0x01, 0xfe, 0xf8, 0xf8, 0xec, 0xfa, 0xf5, 0xf0,
  0x13, 0x07, 0xfe, 0x0d, 0xff, 0x04, 0xf3, 0x02, 0xf0, 0xf7, 0x00, 0xf7,
  0xf4, 0xff, 0x0c, 0x13, 0x08, 0x13, 0xf5, 0x0b, 0x0d, 0x07, 0x06, 0xef,
  0x00, 0xee, 0x03, 0x03, 0xee, 0x0b, 0xee, 0xf7, 0xf7, 0x11, 0x11, 0x0f,
  0x0c, 0xfb, 0x05, 0x0c, 0xed, 0x00, 0x08, 0x12, 0xf7, 0x02, 0x11, 0xfa,
  0xf0, 0x0f, 0x0f, 0xf0, 0xf0, 0x00, 0xf4, 0x0a, 0xef, 0xff, 0xff, 0xfd,
  0xee, 0x10, 0x07, 0xf4, 0xed, 0xff, 0x11, 0xf7, 0x04, 0xed, 0x09, 0xef,
  0x05, 0xf0, 0xee, 0x08, 0x09, 0xfc, 0xee, 0xff, 0xf9, 0xf5, 0x11, 0x06,
  0x10, 0x0b, 0xfa, 0x10, 0x08, 0x02, 0xf3, 0xf3, 0xf4, 0xfa, 0x0a, 0x08,
  0x01, 0xf3, 0xf0, 0x0c, 0xfb, 0xf7, 0xfb, 0xf2, 0xf9, 0x0f, 0xf8, 0x0d,
  0x05, 0xf3, 0x01, 0x04, 0x00, 0x13, 0x0d, 0x00, 0xee, 0x04, 0x00, 0xee,
  0xfb, 0xf4, 0xf7, 0xf8, 0x09, 0xfd, 0xf2, 0x09, 0x12, 0x08, 0xf2, 0xfa,
  0x0b, 0x11, 0x0c, 0xf5, 0x00, 0xf7, 0xff, 0xfb, 0xfb, 0xfa, 0xee, 0x09,
  0xf8, 0x03, 0x05, 0xfa, 0xf3, 0xfd, 0xf6, 0x0a, 0x11, 0x08, 0x0c, 0x11,
  0x05, 0xfd, 0xf4, 0xf9, 0x08, 0xf6, 0xfa, 0xf6, 0x0b, 0x0e, 0x10, 0xf3,
  0xfe, 0xf8, 0x0f, 0xfd, 0xff, 0x0f, 0x13, 0xf0, 0xf7, 0xf4, 0x09, 0x13,
  0xf3, 0xf8, 0x0a, 0xf4, 0x07, 0x0a, 0x0f, 0xee, 0xfa, 0x0b, 0x0b, 0x04,
  0xed, 0xfb, 0x00, 0xf0, 0xf3, 0xf1, 0xf4, 0xf1, 0xfa, 0x0c, 0xee, 0xf5,
  0x0d, 0x13, 0x0a, 0x13, 0x03, 0x10, 0x09, 0x09, 0x08, 0x04, 0xfb, 0x02,
  0xf1, 0xff, 0x09, 0x08, 0x0b, 0xef, 0x0e, 0xf6, 0x06, 0x08, 0x05, 0xfe,
  0xfb, 0x12, 0x11, 0xf2, 0xf2, 0xed, 0x12, 0x01, 0x10, 0x00, 0xf3, 0xfe,
  0x0e, 0xf6, 0x0e, 0xf6, 0x0a, 0xee, 0x11, 0xf6, 0xf2, 0xf0, 0xf8, 0x0f,
  0x12, 0x0a, 0xf2, 0x09, 0x01, 0xf7, 0xf7, 0xed, 0x09, 0x0d, 0x09, 0xf7,
  0xee, 0xff, 0xf8, 0xf0, 0xf4, 0x01, 0x0b, 0xef, 0x09, 0xf9, 0x11, 0x12,
  0xef, 0xf0, 0x0f, 0x07, 0xf0, 0x11, 0xf2, 0xfa, 0x11, 0xf9, 0xec, 0xf8,
  0xf7, 0xfb, 0x0a, 0xf9, 0x06, 0xff, 0xed, 0x0a, 0x02, 0x13, 0xf0, 0xf7,
  0xef, 0xf7, 0xef, 0x10, 0x11, 0x09, 0xee, 0x00, 0xf3, 0xfe, 0x11, 0xf0,
  0xf8, 0x0c, 0x02, 0xf6, 0xed, 0xf8, 0x07, 0x0b, 0xf0, 0x10, 0x04, 0xed,
  0xfa, 0x12, 0xf1, 0x05, 0x00, 0xfb, 0xf7, 0x08, 0x12, 0x0f, 0xf8, 0xf7,
  0x01, 0x0b, 0xf1, 0xf2, 0x0d, 0xf8, 0x0c, 0xee, 0xfb, 0x0f, 0x00, 0x01,
  0x08, 0xfa, 0xf3, 0x0b, 0xf2, 0x10, 0x13, 0x03, 0x13, 0x0d, 0xf8, 0x0e,
  0x00, 0xff, 0x11, 0x11, 0xf9, 0xef, 0xf1, 0x11, 0xee, 0x10, 0x10, 0x0d,
  0xf3, 0xfe, 0x06, 0xee, 0xff, 0x0c, 0x0c, 0xf5, 0x02, 0xfc, 0x04, 0xfe,
  0xf5, 0xf1, 0x0e, 0xfa, 0x08, 0xf8, 0x12, 0x0e, 0xfb, 0xee, 0xf9, 0x12,
  0xf4, 0xed, 0x05, 0x13, 0x06, 0x0e, 0x08, 0x12, 0xf2, 0x09, 0x12, 0x11,
  0xed, 0xfc, 0x11, 0xfa, 0xf9, 0x01, 0x02, 0x01, 0xfd, 0x0a, 0xfc, 0xf2,
  0x0a, 0x0e, 0x0b, 0xef, 0x12, 0x13, 0xfd, 0xf5, 0xee, 0x09, 0xf6, 0x0c,
  0xfb, 0x00, 0x0c, 0x03, 0xf5, 0x09, 0xf6, 0x0c, 0x04, 0x08, 0xed, 0x03,
  0xf9, 0x05, 0x10, 0x05, 0xfc, 0x01, 0xf3, 0xed, 0xf8, 0xfc, 0xfe, 0xf5,
  0xf8, 0x04, 0xfb, 0xf3, 0x03, 0xf0, 0x07, 0x05, 0xf7, 0xfe, 0x0c, 0xf7,
  0x00, 0xed, 0xfd, 0xf0, 0x08, 0x12, 0xf3, 0xf6, 0x03, 0xf2, 0x0e, 0xfc,
  0x00, 0xee, 0xed, 0x12, 0xfc, 0x05, 0xf0, 0xf8, 0x04, 0xf1, 0x0b, 0x01,
  0xee, 0xf2, 0x0d, 0xfe, 0xf7, 0xf9, 0xf8, 0xed, 0xf2, 0x09, 0x10, 0x0e,
  0xee, 0xfa, 0x08, 0x07, 0x08, 0x11, 0x09, 0x00, 0x07, 0x01, 0xf0, 0xf0,
  0x0d, 0xf7, 0xee, 0xfe, 0xf2, 0x08, 0x05, 0xf2, 0xf7, 0xfe, 0xf6, 0xf7,
  0x11, 0x0c, 0x03, 0xed, 0x0e, 0x08, 0x08, 0xee, 0xfd, 0xf2, 0xfc, 0xee,
  0x00, 0xff, 0x01, 0xef, 0x0d, 0x05, 0xfd, 0x0c, 0xf5, 0x0d, 0xf6, 0xed,
  0x02, 0x05, 0x11, 0x04, 0x12, 0xf9, 0x11, 0x12, 0xfb, 0xf9, 0x0b, 0x0f,
  0xf2, 0x0e, 0xfb, 0x07, 0xed, 0x11, 0xfc, 0x08, 0x0a, 0xff, 0xf4, 0x02,
  0xf2, 0xf6, 0x0b, 0x07, 0x11, 0xec, 0x05, 0x11, 0xf8, 0x0e, 0x02, 0x0a,
  0xf3, 0x03, 0xef, 0xf7, 0xed, 0xfc, 0xfc, 0x02, 0x05, 0x09, 0x0e, 0xfb,
  0xee, 0xf4, 0x0d, 0x0a, 0x0d, 0x0a, 0x13, 0xf0, 0xf6, 0xf7, 0x0b, 0xf3,
  0xf2, 0xf2, 0xee, 0xfc, 0xf2, 0x0f, 0xef, 0x0f, 0x02, 0x00, 0x02, 0xf4,
  0xfb, 0xf5, 0x05, 0x0b, 0xff, 0x00, 0x12, 0xf6, 0x11, 0x08, 0x0c, 0x05,
  0x10, 0x02, 0xfd, 0x0b, 0x0a, 0xfd, 0xf7, 0x05, 0xf4, 0x0f, 0xf1, 0xfd,
  0x13, 0x0e, 0xf4, 0xf6, 0x0c, 0xff, 0x07, 0xff, 0x04, 0xf6, 0x00, 0x0d,
  0xfb, 0xfa, 0xfc, 0x0e, 0x0a, 0x0b, 0x0a, 0x04, 0xf7, 0xff, 0x0c, 0xf8,
  0x09, 0xf7, 0xf0, 0x0b, 0xf9, 0x11, 0x0c, 0x12, 0x0f, 0x05, 0x12, 0xf4,
  0x0e, 0xf6, 0xf6, 0xf6, 0xfd, 0x05, 0xf1, 0x0f, 0x04, 0x0c, 0x10, 0xf7,
  0x09, 0xf5, 0xf7, 0xf5, 0x07, 0x13, 0x01, 0x0e, 0x04, 0x12, 0xf5, 0x05,
  0x0e, 0x00, 0xf0, 0xf6, 0xfb, 0xf4, 0x11, 0x09, 0xfe, 0x03, 0x0b, 0xf8,
  0xfa, 0x03, 0x0d, 0xf5, 0x00, 0xee, 0x0c, 0xef, 0x04, 0x14, 0x0c, 0xf3,
  0x04, 0x0b, 0xf3, 0xf3, 0xf7, 0xf5, 0xf6, 0x00, 0x09, 0x00, 0x07, 0x02,
  0xfc, 0x11, 0xee, 0x06, 0x14, 0x04, 0x0d, 0xed, 0x0a, 0xee, 0xed, 0x01,
  0x04, 0xf4, 0xed, 0x11, 0xed, 0xf0, 0x0b, 0xf0, 0x11, 0x03, 0x10, 0x0c,
  0x0a, 0xed, 0xfb, 0x0c, 0xfa, 0xf0, 0x10, 0xed, 0x05, 0x0e, 0x07, 0xf0,
  0xf8, 0xf1, 0xf5, 0xf5, 0xf8, 0xf2, 0x11, 0x06, 0xf0, 0xf8, 0x0c, 0xf5,
  0xed, 0xf7, 0x07, 0xf6, 0x10, 0xf1, 0x0a, 0x03, 0xfb, 0xf2, 0xf9, 0x13,
  0x04, 0xf6, 0x01, 0xf5, 0x08, 0x06, 0xf5, 0x04, 0xfd, 0xf2, 0xf1, 0x0b,
  0x03, 0xf6, 0x0c, 0xfc, 0xf7, 0xfc, 0xfc, 0xfc, 0xfe, 0x0c, 0x07, 0xf5,
  0xef, 0xf7, 0x00, 0xfa, 0x0d, 0x05, 0xf4, 0x07, 0x11, 0xfd, 0x11, 0xf4,
  0x05, 0x05, 0xef, 0xf1, 0xef, 0x04, 0xef, 0x05, 0x11, 0xf3, 0xf8, 0xfc,
  0x02, 0x0b, 0xfe, 0xfd, 0x0b, 0x01, 0x03, 0x06, 0x06, 0xf4, 0xf0, 0x0a,
  0x03, 0x13, 0x02, 0x00, 0xf8, 0xf2, 0xff, 0xf9, 0xed, 0x04, 0x07, 0xf0,
  0x00, 0xf6, 0x08, 0x04, 0xfa, 0xfb, 0xed, 0xf2, 0x0e, 0xfa, 0xfd, 0x01,
  0xfd, 0x0d, 0xf2, 0x05, 0x0d, 0x0b, 0x01, 0xf4, 0x12, 0x06, 0xef, 0x00,
  0xee, 0x0b, 0xff, 0xfe, 0x01, 0x00, 0x06, 0xfc, 0x11, 0xf3, 0x05, 0xf9,
  0x0c, 0x06, 0xf3, 0xef, 0xf5, 0x11, 0x13, 0x0d, 0x0f, 0x06, 0x00, 0x0b,
  0xfc, 0xf5, 0x0e, 0xed, 0x07, 0xf0, 0xec, 0xf0, 0xee, 0xfd, 0x0b, 0xf6,
  0x10, 0xf2, 0xfd, 0xf4, 0x0a, 0xf1, 0x0c, 0x0b, 0x05, 0x0e, 0x0f, 0xf4,
  0xf9, 0x13, 0xf1, 0x11, 0xfa, 0xf1, 0x09, 0xf6, 0x0d, 0xf5, 0x12, 0x0f,
  0xfa, 0x13, 0x06, 0xf0, 0xf6, 0x0a, 0x0b, 0x0c, 0xef, 0x11, 0xfc, 0x08,
  0x05, 0xef, 0x04, 0x00, 0x11, 0x01, 0x06, 0x09, 0xfc, 0xee, 0x06, 0xfc,
  0x0f, 0xf5, 0xf3, 0xf5, 0xed, 0xfe, 0x0e, 0x05, 0xf8, 0xff, 0xf3, 0xf8,
  0x00, 0xfb, 0xfa, 0xf4, 0xf7, 0xf3, 0xed, 0xfa, 0x03, 0xfd, 0xf2, 0xed,
  0x01, 0x10, 0x0d, 0xf9, 0x0e, 0xf0, 0xfe, 0xf6, 0x04, 0xf5, 0xf1, 0xee,
  0x08, 0x0f, 0x06, 0x04, 0xf3, 0x0c, 0xfb, 0xf5, 0x13, 0x05, 0xfe, 0x03,
  0x10, 0xff, 0xf1, 0xff, 0xf2, 0x12, 0xf1, 0xfe, 0x05, 0xf9, 0x00, 0x00,
  0x07, 0xee, 0xf0, 0xf1, 0x08, 0x05, 0xed, 0x0a, 0x0a, 0x0c, 0x07, 0xf4,
  0xef, 0x00, 0x02, 0xee, 0xf0, 0x00, 0xf8, 0x0c, 0x0f, 0xf9, 0xef, 0xee,
  0x0d, 0x03, 0xee, 0xef, 0xff, 0x0b, 0x0a, 0xf8, 0xf7, 0xfb, 0x0d, 0x09,
  0x0e, 0xfe, 0x0e, 0xf7, 0xf3, 0xf1, 0x12, 0x03, 0xf3, 0xed, 0x0d, 0x0b,
  0xff, 0x09, 0xf4, 0x07, 0xfd, 0x12, 0xfc, 0xf5, 0xf7, 0xee, 0xfd, 0xf2,
  0x10, 0xf5, 0xf3, 0x0a, 0xfe, 0x02, 0xf9, 0x11, 0x05, 0x0d, 0xfb, 0xf1,
  0x02, 0x12, 0x02, 0x03, 0xf8, 0xee, 0xf0, 0xfb, 0xfc, 0x13, 0xfc, 0xf9,
  0x12, 0xfd, 0x08, 0x0f, 0x0a, 0x00, 0x05, 0xf2, 0xf1, 0xf9, 0x04, 0x14,
  0xf5, 0xec, 0x0e, 0x11, 0x0a, 0x13, 0xff, 0xfa, 0x03, 0x0f, 0x00, 0xf2,
  0xfe, 0xfc, 0x09, 0xf8, 0x13, 0x04, 0xed, 0xff, 0x0f, 0x10, 0xff, 0xf9,
  0xf1, 0x00, 0xfa, 0xef, 0xf6, 0x13, 0x0c, 0xf3, 0x0b, 0xfb, 0xfd, 0x09,
  0x13, 0x04, 0x0a, 0x07, 0x11, 0x06, 0x0e, 0xef, 0xef, 0x13, 0xfd, 0x03,
  0x05, 0x0f, 0xfc, 0xed, 0xed, 0xfb, 0xf5, 0x0c, 0x01, 0x0e, 0x03, 0x0a,
  0xfe, 0xfb, 0xee, 0xf3, 0xf4, 0x05, 0xfd, 0xf4, 0x13, 0x04, 0x04, 0xfe,
  0xee, 0xfb, 0xf9, 0x0b, 0x0b, 0xef, 0x10, 0xf9, 0xef, 0xed, 0xf3, 0x05,
  0x0a, 0x13, 0x0e, 0xed, 0xf7, 0x13, 0xee, 0x0a, 0x12, 0x06, 0xf1, 0xf5,
  0xfa, 0x11, 0x06, 0xf6, 0xf9, 0xf7, 0x13, 0xef, 0x0b, 0xf6, 0xf5, 0xf3,
  0xf7, 0x09, 0xfa, 0x01, 0x03, 0xef, 0xfb, 0xee, 0xf7, 0xf2, 0xf1, 0xef,
  0xf5, 0xfa, 0x04, 0xf0, 0x00, 0xfb, 0x01, 0x05, 0x09, 0x0b, 0x01, 0x02,
  0xf2, 0x13, 0x04, 0x01, 0x02, 0xf9, 0xfa, 0xec, 0x0d, 0x01, 0xfa, 0xf7,
  0x01, 0x04, 0x07, 0xf2, 0x0f, 0x0f, 0x05, 0xf2, 0x13, 0x07, 0xed, 0x00,
  0xf4, 0x11, 0x01, 0xf8, 0xed, 0xed, 0x11, 0xf7, 0x11, 0xf1, 0xf2, 0x01,
  0xfa, 0x05, 0x14, 0xf9, 0xef, 0x0b, 0xff, 0xf0, 0x01, 0x13, 0x10, 0x02,
  0xf5, 0x0e, 0x0a, 0xfd, 0x12, 0x01, 0xf5, 0xf4, 0x04, 0xf3, 0xed, 0xf4,
  0xf0, 0x05, 0x0e, 0xff, 0x0d, 0xf9, 0xf7, 0xf6, 0xf5, 0xf5, 0x01, 0xef,
  0xf5, 0xfe, 0x08, 0xf8, 0x01, 0x08, 0xed, 0x12, 0xef, 0xf3, 0x0b, 0x11,
  0x05, 0xf3, 0xf7, 0xfe, 0xfa, 0xef, 0x0f, 0xf0, 0xf5, 0xee, 0xf2, 0x08,
  0xf5, 0x10, 0x0e, 0x03, 0x04, 0x0c, 0xf5, 0xee, 0x0e, 0x07, 0xed, 0xfd,
  0x0c, 0x06, 0xfe, 0x09, 0x09, 0x07, 0x05, 0xf3, 0xf7, 0x13, 0x05, 0xf4,
  0x01, 0x13, 0x09, 0xed, 0x13, 0xf4, 0xfc, 0xff, 0x0a, 0xee, 0x00, 0x05,
  0xfb, 0x04, 0xfa, 0x0d, 0x06, 0x04, 0x0c, 0x08, 0xf1, 0x13, 0xf2, 0xfd,
  0xf4, 0x10, 0xfe, 0x10, 0xfa, 0xf8, 0x08, 0x12, 0x02, 0x12, 0x03, 0xee,
  0xf3, 0xef, 0x02, 0x01, 0x04, 0x13, 0xf2, 0x0e, 0x09, 0xf4, 0x0b, 0xf2,
  0x13, 0xfc, 0xff, 0xf0, 0x03, 0x13, 0x0f, 0xfa, 0xf4, 0x0e, 0x0b, 0xee,
  0xef, 0xf3, 0xf4, 0x01, 0x0e, 0x02, 0xf6, 0x00, 0x0b, 0xf8, 0x0c, 0xf0,
  0x10, 0xef, 0x0d, 0xf7, 0x07, 0x0a, 0xed, 0x13, 0x02, 0x06, 0xf2, 0x0d,
  0xed, 0xf8, 0x0f, 0x07, 0x00, 0xee, 0xf9, 0x13, 0x02, 0xf7, 0x11, 0xfe,
  0x0b, 0x03, 0xee, 0x11, 0xf2, 0x08, 0xf3, 0xfc, 0xfb, 0x02, 0xf9, 0xf6,
  0x04, 0xfb, 0x06, 0xf1, 0x08, 0xfa, 0x08, 0x06, 0x0c, 0xfc, 0x12, 0xf5,
  0x0e, 0xfd, 0x11, 0x0d, 0xfd, 0x03, 0xf3, 0x0d, 0xf8, 0xf4, 0x08, 0x0f,
  0x07, 0xfb, 0xf9, 0xf4, 0xfe, 0xf2, 0x0f, 0x0e, 0x0c, 0xee, 0x0c, 0x00,
  0xfa, 0xf6, 0xfc, 0x0d, 0xf1, 0xf2, 0x13, 0xf1, 0xfc, 0x0b, 0xf4, 0x06,
  0xfc, 0x10, 0xfd, 0x07, 0x00, 0x06, 0x11, 0xef, 0xf1, 0x01, 0xf7, 0xf6,
  0x05, 0xf9, 0x12, 0x07, 0x08, 0x07, 0xf9, 0x00, 0xfd, 0xf2, 0xff, 0x04,
  0xfd, 0xff, 0x07, 0xf3, 0xee, 0x0c, 0xef, 0xff, 0x04, 0x00, 0xf7, 0xf7,
  0xf9, 0x11, 0xf9, 0x0e, 0xf1, 0xf0, 0x01, 0x10, 0x12, 0xf7, 0xf9, 0x02,
  0x12, 0x08, 0xf7, 0xf1, 0xfb, 0x0a, 0x13, 0xf8, 0x11, 0x0e, 0x13, 0x06,
  0x0f, 0x04, 0x03, 0x0d, 0xee, 0xfb, 0x0e, 0x0a, 0xff, 0x06, 0xf3, 0x11,
  0xf1, 0x08, 0x00, 0xf8, 0xf6, 0x10, 0xf3, 0xed, 0xf5, 0x10, 0x05, 0x10,
  0xef, 0xff, 0xfc, 0x0b, 0xfc, 0x0e, 0xff, 0xfa, 0xf3, 0x14, 0xf1, 0xfe,
  0x00, 0xf2, 0x04, 0xf1, 0xf1, 0x02, 0xf0, 0xfa, 0xf2, 0x13, 0xfa, 0x08,
  0xfa, 0xf1, 0xfa, 0x04, 0xf8, 0x07, 0x11, 0xfd, 0x08, 0xf0, 0x06, 0x07,
  0x0e, 0xff, 0x0e, 0xf0, 0xf2, 0x08, 0x07, 0x0e, 0xef, 0x00, 0x03, 0x08,
  0x10, 0x05, 0xfb, 0xf8, 0x08, 0x06, 0xfd, 0xf2, 0xf4, 0xf5, 0x14, 0xf2,
  0x08, 0x00, 0x03, 0xfc, 0xf0, 0x07, 0xf0, 0x14, 0x02, 0x08, 0xf9, 0xfd,
  0x01, 0x10, 0xf6, 0xed, 0xf3, 0x0f, 0x10, 0xfa, 0xfa, 0x03, 0x03, 0xf7,
  0x0f, 0x0e, 0xf5, 0xfb, 0x03, 0x02, 0x12, 0x10, 0x08, 0x11, 0xf4, 0x05,
  0x0e, 0x11, 0xf5, 0xf5, 0x11, 0xfa, 0xf0, 0x05, 0xed, 0xfe, 0xf3, 0xf3,
  0xee, 0xf0, 0xf3, 0xee, 0xee, 0x04, 0xf8, 0x09, 0xf8, 0x0b, 0xf1, 0x09,
  0xee, 0xf9, 0xfa, 0x11, 0x0a, 0x0b, 0x07, 0x0d, 0x03, 0xed, 0xfa, 0x04,
  0xfb, 0xee, 0x0d, 0x0e, 0xf9, 0xfe, 0xf7, 0xf4, 0xfa, 0x0f, 0xf8, 0x08,
  0x08, 0xf4, 0x11, 0xfd, 0x0e, 0xef, 0x0a, 0x13, 0xf6, 0xed, 0xfc, 0xfd,
  0x07, 0xff, 0x05, 0x0f, 0xf8, 0xed, 0x0b, 0x05, 0xfc, 0xf6, 0xfc, 0xfb,
  0xef, 0xf5, 0xec, 0x00, 0x04, 0xf6, 0x0c, 0xfb, 0x10, 0xfd, 0x0c, 0x0c,
  0x0f, 0xf0, 0xf0, 0xfd, 0x09, 0x00, 0xf8, 0x13, 0x00, 0x03, 0xf0, 0x02,
  0xf4, 0xf6, 0x0d, 0x10, 0xf3, 0x0d, 0x06, 0xee, 0xfb, 0x0d, 0x0c, 0xfc,
  0xfe, 0x13, 0xfb, 0xf0, 0xf8, 0x01, 0xf9, 0x01, 0x0d, 0xfa, 0x10, 0x0f,
  0x10, 0x00, 0xf8, 0xf5, 0xf9, 0xff, 0xf2, 0x07, 0x0f, 0x03, 0x04, 0x04,
  0x05, 0x0d, 0xff, 0x13, 0x07, 0xf9, 0xf3, 0xef, 0x07, 0xf6, 0xf7, 0xf8,
  0x0a, 0xf2, 0x11, 0xff, 0xf9, 0x0a, 0xee, 0xfc, 0x0a, 0x06, 0xf5, 0xef,
  0x13, 0xf0, 0x09, 0xf7, 0xef, 0xfc, 0xf6, 0xf5, 0x10, 0x00, 0xfa, 0xf7,
  0xf4, 0xfe, 0xfb, 0xef, 0xfa, 0xf8, 0xf8, 0xfb, 0xf2, 0x0b, 0x0f, 0x10,
  0xfb, 0xf9, 0x11, 0xef, 0xf0, 0x07, 0xed, 0xf5, 0x04, 0x04, 0xf4, 0x01,
  0xfe, 0xf2, 0x07, 0xff, 0xf3, 0x00, 0x03, 0xf0, 0x10, 0x02, 0xfc, 0x12,
  0x12, 0x02, 0xf9, 0xf2, 0x08, 0xfb, 0xf8, 0xee, 0x02, 0x04, 0xf7, 0x10,
  0x08, 0x11, 0x0d, 0x11, 0x08, 0xf6, 0xfd, 0x0e, 0xff, 0x08, 0x02, 0x0c,
  0xfa, 0xf3, 0x02, 0xef, 0xf6, 0x07, 0x0a, 0x02, 0xf5, 0xfb, 0x05, 0xfd,
  0xfe, 0xfc, 0xf1, 0x06, 0xfd, 0x04, 0xf3, 0xf1, 0xfe, 0xf8, 0x13, 0x09,
  0xf4, 0x0c, 0xf7, 0x07, 0xf9, 0xfd, 0x0e, 0x12, 0x02, 0x0f, 0x11, 0xf4,
  0x06, 0xf0, 0xfa, 0xed, 0xf7, 0xf0, 0x08, 0x06, 0xf6, 0x10, 0xf1, 0x0f,
  0x0d, 0x0a, 0xee, 0xfd, 0x08, 0xef, 0x0e, 0xf3, 0xec, 0xfc, 0x04, 0xfd,
  0x11, 0x00, 0xfe, 0xfc, 0xee, 0xf6, 0x0a, 0xf4, 0xf0, 0x0c, 0xf6, 0x0f,
  0x0c, 0xf4, 0x06, 0x04, 0xf8, 0x12, 0xff, 0x0f, 0xf8, 0xf0, 0xf7, 0xfc,
  0x0c, 0xef, 0x09, 0xfd, 0x04, 0x07, 0x09, 0x05, 0xfd, 0x05, 0xee, 0xf2,
  0xf5, 0xfc, 0xf9, 0xfe, 0xf5, 0xfa, 0xf0, 0xf3, 0xf6, 0x0e, 0xf9, 0x0c,
  0x11, 0xf8, 0xf2, 0x08, 0xfb, 0xff, 0xef, 0x01, 0xf6, 0x08, 0x08, 0xf9,
  0x05, 0x06, 0xfa, 0xf1, 0x0a, 0x06, 0xf0, 0x11, 0x0d, 0x02, 0x06, 0x0b,
  0x02, 0xfa, 0xf8, 0x01, 0xfb, 0xf2, 0x0e, 0x13, 0x11, 0xf4, 0x05, 0x0e,
  0x0b, 0xef, 0x03, 0x0f, 0xee, 0xfe, 0xfa, 0xfd, 0x07, 0x09, 0x05, 0x06,
  0x00, 0xed, 0xfd, 0x10, 0x0d, 0x0d, 0x0d, 0xfc, 0x09, 0xf8, 0x0f, 0xfd,
  0x09, 0x07, 0xfa, 0x12, 0x0a, 0x06, 0x0b, 0x0d, 0xf6, 0x0e, 0xff, 0xf5,
  0xff, 0x07, 0xf4, 0x09, 0xf4, 0x13, 0xf3, 0x04, 0xf9, 0x11, 0xfe, 0x02,
  0xf2, 0xff, 0x09, 0xf8, 0x02, 0x07, 0x0e, 0x04, 0x01, 0xf8, 0x11, 0x01,
  0xf4, 0xfd, 0x08, 0x0f, 0xfd, 0x02, 0xf4, 0x0a, 0xf8, 0x04, 0xfa, 0xec,
  0x01, 0x03, 0x07, 0xfe, 0xf2, 0xf1, 0xfb, 0xf9, 0xfb, 0x0c, 0xee, 0xf9,
  0x04, 0xfb, 0xfa, 0x07, 0x0b, 0xf3, 0xf2, 0x00, 0x00, 0x00, 0xef, 0x09,
  0x00, 0xf9, 0xf2, 0xee, 0xfd, 0xfb, 0xfe, 0x08, 0x0b, 0xf5, 0xfd, 0x05,
  0x13, 0x0a, 0x05, 0xf1, 0xf8, 0x0e, 0x0c, 0x12, 0x0f, 0x08, 0x11, 0x0d,
  0xfe, 0xf5, 0xf3, 0x05, 0xf4, 0xef, 0x03, 0xfe, 0xed, 0xfe, 0xee, 0x04,
  0x02, 0x0c, 0xfc, 0x0e, 0xf4, 0xee, 0xf6, 0xf0, 0xf0, 0x12, 0xf8, 0x04,
  0xfb, 0xff, 0xf7, 0xf1, 0x11, 0xf6, 0xee, 0x06, 0x0c, 0x0f, 0xfc, 0x0f,
  0xff, 0x06, 0x09, 0x0b, 0xeb, 0x02, 0x03, 0x02, 0xff, 0x03, 0x11, 0x0b,
  0xf8, 0xfe, 0x0f, 0xfa, 0x07, 0xf6, 0x10, 0xf0, 0xf0, 0x03, 0x05, 0x12,
  0xec, 0xfc, 0x06, 0x03, 0xef, 0x07, 0x05, 0xf4, 0xf6, 0xfa, 0xef, 0xff,
  0xff, 0xfb, 0x13, 0x09, 0xf3, 0xfa, 0x01, 0xf8, 0x11, 0x12, 0xf8, 0x08,
  0xec, 0xf0, 0xff, 0xf1, 0xfc, 0x0e, 0xf5, 0x06, 0xef, 0x05, 0x05, 0x0b,
  0xec, 0xef, 0xfa, 0xf3, 0xfe, 0xf8, 0x12, 0x10, 0xfd, 0x0e, 0x06, 0x0b,
  0x11, 0x04, 0xf7, 0xf1, 0xfb, 0x0f, 0xff, 0xf1, 0xf3, 0x13, 0xf1, 0xf8,
  0x09, 0xf3, 0xf9, 0x08, 0xf1, 0xf4, 0xf6, 0xf9, 0x0a, 0xec, 0xec, 0x02,
  0xf3, 0x03, 0xf3, 0xf3, 0xf8, 0x13, 0xfc, 0x04, 0x12, 0x05, 0xfb, 0xf9,
  0xec, 0x10, 0x10, 0x02, 0x06, 0xfe, 0xff, 0xfb, 0x0c, 0x08, 0x07, 0xef,
  0xfe, 0x0d, 0x11, 0xfd, 0xfa, 0xff, 0x02, 0xff, 0x10, 0x08, 0x06, 0x02,
  0x0f, 0xf3, 0x0f, 0xfa, 0xf8, 0xf9, 0x0c, 0xf9, 0x07, 0x11, 0x0c, 0xf3,
  0x04, 0x01, 0x06, 0x0c, 0x09, 0x00, 0xed, 0x10, 0xf0, 0x02, 0x0e, 0xf7,
  0x0c, 0xee, 0x10, 0xf9, 0xfb, 0xf5, 0xef, 0x04, 0x06, 0xfc, 0x08, 0xed,
  0x02, 0x05, 0x0d, 0xfe, 0x06, 0x0c, 0x0a, 0xf3, 0x06, 0xec, 0xf4, 0xf7,
  0xfc, 0xee, 0xf5, 0x10, 0x08, 0x05, 0x0f, 0xfa, 0x02, 0xfd, 0xf5, 0x0b,
  0x05, 0x03, 0x0c, 0xf7, 0xf2, 0xf0, 0x08, 0xef, 0xfb, 0xf6, 0xf7, 0xfe,
  0xf1, 0xed, 0x0d, 0xfc, 0x06, 0xfa, 0xf7, 0x0d, 0xfa, 0x10, 0x11, 0x03,
  0xfa, 0x07, 0xed, 0xef, 0xfe, 0x08, 0xfc, 0xfd, 0xfa, 0xfe, 0xf2, 0xf7,
  0xf0, 0xf7, 0xf2, 0x02, 0xf2, 0xed, 0xf0, 0xff, 0x09, 0x06, 0x0f, 0x0b,
  0x0f, 0xf8, 0x0d, 0x00, 0x07, 0xf9, 0x05, 0x0e, 0x0b, 0x08, 0xf0, 0xfb,
  0x08, 0x06, 0x02, 0x0d, 0xf0, 0xf0, 0x10, 0x0c, 0x11, 0xfe, 0x0c, 0x11,
  0x05, 0x01, 0x11, 0x11, 0x03, 0xec, 0xfb, 0xf4, 0xf1, 0xee, 0x04, 0x03,
  0xf4, 0x11, 0x11, 0xef, 0x07, 0x00, 0xf1, 0xf7, 0xf9, 0xfd, 0xf8, 0xf2,
  0xee, 0x0e, 0x04, 0xf3, 0x0d, 0x0e, 0x0f, 0x0f, 0x09, 0xf8, 0xfa, 0x11,
  0xfe, 0xfe, 0x10, 0xf7, 0x07, 0x08, 0x02, 0x0e, 0x02, 0x0f, 0x08, 0xf5,
  0xf5, 0xff, 0xec, 0xf2, 0xf6, 0x0e, 0x0e, 0x01, 0xf7, 0xfb, 0x12, 0xf6,
  0x0e, 0xfa, 0x0b, 0xf0, 0xec, 0x0e, 0xf4, 0x05, 0xf9, 0x02, 0xee, 0xef,
  0x09, 0x08, 0x08, 0x0b, 0x11, 0xf9, 0xf6, 0x12, 0x10, 0x00, 0x00, 0xf5,
  0x0c, 0x0c, 0x01, 0x09, 0x12, 0xfb, 0x07, 0xf0, 0x0c, 0x06, 0x04, 0x0d,
  0xef, 0x0e, 0x10, 0xf9, 0xee, 0xf6, 0x06, 0x0a, 0x04, 0xef, 0xf5, 0xfe,
  0xfb, 0xf2, 0x0b, 0x12, 0xf7, 0xff, 0x06, 0xf4, 0x12, 0xfa, 0xfd, 0xf2,
  0xff, 0xff, 0x10, 0x05, 0x01, 0x0b, 0x0e, 0xfb, 0xef, 0x07, 0x0d, 0xf9,
  0xf1, 0xed, 0xf0, 0x10, 0xf9, 0xf9, 0xed, 0xf7, 0xf1, 0x05, 0x09, 0x10,
  0xee, 0x07, 0x10, 0xfe, 0xed, 0xff, 0xf2, 0xf7, 0xf3, 0xfa, 0x0e, 0xf0,
  0xfe, 0xfa, 0x0d, 0xf5, 0x11, 0xf5, 0x07, 0xf1, 0xf8, 0x10, 0x06, 0xf6,
  0xf7, 0x11, 0x0c, 0x0d, 0x06, 0xf8, 0xfd, 0xf8, 0xfb, 0xfc, 0x0c, 0xf3,
  0x0b, 0x09, 0x00, 0xfd, 0xff, 0x13, 0xee, 0xed, 0x0a, 0x12, 0xff, 0x12,
  0x0e, 0xfc, 0xf1, 0x12, 0xec, 0xec, 0x0b, 0xec, 0xf5, 0x04, 0xfc, 0xf7,
  0x06, 0xf8, 0xee, 0x11, 0xf7, 0xfb, 0x0d, 0x11, 0xf7, 0x07, 0xf9, 0x01,
  0xf4, 0xec, 0x03, 0x07, 0x0f, 0x0b, 0x02, 0x10, 0xfc, 0x0a, 0xf5, 0x07,
  0x0e, 0x03, 0x13, 0x06, 0xfb, 0xf8, 0xf9, 0x0e, 0xf6, 0x11, 0xed, 0x04,
  0x09, 0x0a, 0x08, 0x01, 0xfe, 0xfb, 0x0e, 0x11, 0xff, 0x00, 0x09, 0x10,
  0x0b, 0x09, 0x07, 0x0c, 0xfc, 0xff, 0x11, 0xfc, 0xf6, 0x04, 0xfd, 0x10,
  0xf4, 0xfa, 0xfe, 0xef, 0x10, 0x02, 0xed, 0x0a, 0x10, 0x06, 0xf0, 0xf3,
  0xfc, 0x01, 0x02, 0x04, 0xf6, 0x0f, 0x10, 0xf8, 0xee, 0x0a, 0xfe, 0x10,
  0xf7, 0xf6, 0xf8, 0x0f, 0x0f, 0x11, 0xf4, 0xf4, 0x0d, 0xff, 0x0e, 0x08,
  0xf7, 0xef, 0x08, 0xf5, 0xfa, 0xf1, 0x00, 0xfc, 0xf8, 0x04, 0xf4, 0xfd,
  0x0f, 0x09, 0x06, 0x05, 0x07, 0xf6, 0x05, 0xfa, 0x11, 0xf9, 0xfb, 0xf5,
  0xf8, 0x0a, 0x09, 0xfe, 0x08, 0x01, 0xfb, 0x0e, 0xee, 0x0d, 0x0b, 0x0a,
  0xf3, 0xff, 0x0a, 0xf2, 0xf1, 0xee, 0xf4, 0x0c, 0xf9, 0x00, 0xfe, 0xf6,
  0x00, 0x0a, 0xf2, 0xfe, 0x02, 0x0c, 0x11, 0x0a, 0xfc, 0xef, 0x04, 0x06,
  0xfa, 0x11, 0xff, 0xf4, 0xf0, 0x03, 0xef, 0xfb, 0xf9, 0xfa, 0xf3, 0x12,
  0x09, 0x05, 0xec, 0xed, 0xf7, 0xf6, 0x0e, 0x08, 0xed, 0x05, 0x00, 0xef,
  0x08, 0x12, 0xf2, 0xfc, 0x04, 0xf9, 0xf7, 0xf4, 0xf6, 0xec, 0xf6, 0xf8,
  0x00, 0xef, 0x09, 0xfe, 0xfd, 0x08, 0x04, 0x0a, 0x13, 0xf4, 0x03, 0x0f,
  0xf8, 0x0a, 0xf9, 0x03, 0x09, 0xf0, 0xfb, 0xfa, 0x10, 0xfe, 0x0f, 0xf4,
  0xf1, 0x0a, 0xfa, 0xed, 0xf8, 0x08, 0x0d, 0x0e, 0xfa, 0xee, 0x0a, 0x04,
  0xf2, 0xf5, 0x01, 0xfe, 0xf1, 0x05, 0xfc, 0xfa, 0xf7, 0xf6, 0x04, 0xfa,
  0xef, 0x12, 0xf1, 0x12, 0xf7, 0x0a, 0xf0, 0xf6, 0xed, 0xf5, 0x0f, 0x12,
  0x11, 0xfe, 0x05, 0xff, 0x12, 0xfc, 0x10, 0x0e, 0x02, 0x02, 0xff, 0x0a,
  0xee, 0xf3, 0xf6, 0xfe, 0x05, 0xf1, 0x07, 0xfb, 0x13, 0x13, 0xfc, 0xfc,
  0x09, 0x0f, 0xf3, 0xf1, 0x12, 0x05, 0x0d, 0x00, 0x0b, 0xfc, 0xfb, 0x03,
  0x07, 0xef, 0xfd, 0x0d, 0xf0, 0x08, 0x0b, 0xf0, 0x0b, 0xf3, 0xfa, 0x13,
  0x04, 0x0b, 0xfc, 0x0c, 0x0f, 0xf4, 0x01, 0x12, 0xf6, 0x13, 0x0d, 0x03,
  0xec, 0x13, 0xfe, 0xf9, 0x10, 0xf9, 0x10, 0x09, 0xfa, 0xff, 0x08, 0xf3,
  0x00, 0xef, 0xf9, 0xf9, 0x03, 0xfe, 0xf9, 0xfc, 0xfd, 0x09, 0x13, 0xee,
  0xf3, 0x0e, 0x07, 0xff, 0x07, 0xed, 0xf1, 0xf2, 0x10, 0xff, 0x01, 0x00,
  0x0e, 0xfb, 0x06, 0xf2, 0x06, 0x07, 0x01, 0xfe, 0x11, 0xf6, 0x0b, 0xed,
  0xf3, 0x04, 0xed, 0x05, 0xfb, 0x12, 0x0f, 0x0e, 0xf2, 0xed, 0xf8, 0xf8,
  0xfc, 0xf7, 0x0b, 0xed, 0xf5, 0x11, 0xf4, 0xee, 0xf8, 0xf3, 0xf6, 0xfc,
  0xf0, 0xf1, 0xfc, 0x0c, 0x12, 0x0f, 0x0c, 0xf4, 0xf6, 0x06, 0xfd, 0x0b,
  0x13, 0x12, 0xf7, 0x10, 0x00, 0xf9, 0x05, 0x0b, 0x03, 0x00, 0x06, 0xfd,
  0x0b, 0xfb, 0xf0, 0x0b, 0xf0, 0x08, 0x06, 0xee, 0x00, 0x08, 0x04, 0x0d,
  0x11, 0x07, 0xfb, 0x0a, 0x09, 0xf1, 0x06, 0xfd, 0xf4, 0x01, 0x00, 0x0b,
  0xf6, 0xf3, 0xee, 0xfa, 0x01, 0x0a, 0xfd, 0x09, 0xf7, 0xf9, 0x00, 0xee,
  0x0e, 0x02, 0xf5, 0xfc, 0xef, 0xf1, 0xfe, 0x04, 0x00, 0x11, 0xef, 0x13,
  0xf0, 0xef, 0x04, 0x10, 0x06, 0xec, 0xf3, 0xf9, 0x01, 0xff, 0x0f, 0x07,
  0xf4, 0xfa, 0x07, 0xee, 0x02, 0xf4, 0x03, 0xee, 0xfc, 0xf0, 0xf5, 0xf7,
  0xf8, 0xf6, 0xf8, 0x12, 0xfb, 0xf8, 0x01, 0x11, 0x0a, 0x05, 0xf2, 0x02,
  0xf2, 0x0a, 0x0a, 0xfa, 0xf8, 0xfe, 0xfd, 0xfd, 0xf3, 0xf6, 0x0b, 0x12,
  0xec, 0xfe, 0xf7, 0xfe, 0x06, 0x13, 0x0d, 0xfe, 0xfa, 0xf3, 0x05, 0xfc,
  0xed, 0x05, 0x0a, 0x0f, 0xf3, 0x10, 0xfc, 0xf0, 0xfa, 0x0a, 0x01, 0x07,
  0x08, 0x04, 0x09, 0xf3, 0xf4, 0xf3, 0xf4, 0x0b, 0xf2, 0xf8, 0xf1, 0x01,
  0x13, 0x02, 0xf6, 0x0c, 0x11, 0x06, 0x05, 0x12, 0xf4, 0x05, 0x06, 0x06,
  0x03, 0x12, 0x0e, 0x0d, 0xf6, 0x0f, 0x02, 0xee, 0x05, 0x0c, 0x0a, 0x00,
  0x0a, 0xf9, 0xf1, 0x10, 0x0d, 0x01, 0xff, 0x04, 0x0c, 0x0d, 0xf1, 0x00,
  0x05, 0x12, 0xf6, 0xed, 0xfe, 0xf3, 0xf9, 0x13, 0xfe, 0xf5, 0xff, 0xef,
  0x01, 0xed, 0xef, 0xf8, 0xfd, 0x12, 0xf2, 0xfe, 0x07, 0x0f, 0xf5, 0x02,
  0x12, 0x0a, 0x0e, 0xfa, 0xee, 0xf3, 0x07, 0x07, 0x0d, 0x05, 0xfd, 0x04,
  0x08, 0xec, 0x10, 0x09, 0x10, 0xf9, 0x10, 0x10, 0x06, 0x11, 0x06, 0x0f,
  0xee, 0x0b, 0x0d, 0x13, 0x13, 0x11, 0xf6, 0xf8, 0x10, 0x02, 0xf3, 0xfc,
  0x02, 0xef, 0x02, 0xf0, 0x05, 0xf5, 0x01, 0x11, 0xf0, 0xfe, 0xf6, 0x11,
  0x03, 0x10, 0x0b, 0x0a, 0x07, 0x06, 0x10, 0x13, 0x08, 0xfa, 0x10, 0xf7,
  0xec, 0xef, 0xf0, 0xf6, 0x03, 0xfe, 0xf6, 0xf2, 0x12, 0x05, 0xf5, 0x13,
  0x07, 0x0b, 0xf2, 0xee, 0xf8, 0xf3, 0xfa, 0x13, 0x0e, 0x04, 0x05, 0xf7,
  0xf3, 0x01, 0xf4, 0xff, 0x0f, 0xfc, 0xf8, 0x08, 0x02, 0xf8, 0x11, 0xf2,
  0xfc, 0x09, 0xf2, 0x0e, 0xfc, 0x0b, 0x0a, 0xef, 0xfa, 0x05, 0x05, 0xf8,
  0xef, 0x0a, 0xfc, 0x11, 0x03, 0xed, 0xf6, 0x09, 0x0f, 0x03, 0x03, 0x10,
  0xfb, 0x07, 0x11, 0xed, 0xed, 0xfe, 0x06, 0x13, 0x06, 0xee, 0xfd, 0xf6,
  0x01, 0x13, 0xf2, 0x0d, 0xf4, 0xfe, 0xfd, 0xf8, 0xfb, 0x13, 0xf4, 0x08,
  0x03, 0xfe, 0x04, 0xfe, 0x0f, 0x11, 0xfa, 0xf6, 0xfb, 0x0e, 0xf3, 0x02,
  0x00, 0xfd, 0x08, 0xf5, 0x0f, 0xef, 0x03, 0xfb, 0xf8, 0x0d, 0xfd, 0xf7,
  0xf8, 0xf3, 0x0e, 0xff, 0xfb, 0xf8, 0x12, 0xf0, 0xf0, 0xff, 0xff, 0xf7,
  0x02, 0xfc, 0xfe, 0x08, 0x10, 0xf7, 0xf0, 0x01, 0xf6, 0xf4, 0xfa, 0x0d,
  0xf2, 0x09, 0x09, 0xf4, 0xf4, 0xfb, 0xf4, 0xf2, 0x08, 0x05, 0x01, 0xf7,
  0x0f, 0xfb, 0xff, 0x0e, 0xf8, 0x0c, 0xf8, 0xfb, 0xf0, 0xfe, 0x10, 0xfa,
  0xf6, 0x0b, 0x04, 0x0a, 0x0d, 0x02, 0x0a, 0x0a, 0x09, 0x08, 0xf4, 0x00,
  0xfa, 0xf9, 0xf9, 0xfd, 0xfc, 0xef, 0x08, 0xfd, 0x00, 0xfe, 0xf9, 0x08,
  0x13, 0x06, 0x01, 0x02, 0xf5, 0xfd, 0x06, 0xf3, 0xf5, 0x08, 0xed, 0xf3,
  0x06, 0xf8, 0x0a, 0x00, 0xee, 0xee, 0x0b, 0xf9, 0xf2, 0xed, 0x0a, 0x0f,
  0xf8, 0x02, 0x01, 0xfd, 0x11, 0x05, 0xf3, 0x0d, 0xf4, 0xf4, 0xf7, 0xf4,
  0xfc, 0x04, 0x03, 0x02, 0xfd, 0x06, 0x0e, 0x10, 0xfc, 0xed, 0x0a, 0x08,
  0x10, 0x11, 0x05, 0x04, 0xff, 0x09, 0x0f, 0xfa, 0x0d, 0x12, 0xf3, 0xed,
  0xf5, 0xfe, 0x07, 0x09, 0xf0, 0xf6, 0x12, 0x00, 0xef, 0xf7, 0x10, 0x10,
  0x07, 0x01, 0xef, 0x0a, 0xff, 0x0a, 0xfc, 0x10, 0x07, 0x07, 0x05, 0x0b,
  0x08, 0xef, 0xfd, 0xff, 0x0a, 0xf7, 0xf1, 0xf9, 0x06, 0x00, 0x09, 0xf4,
  0x0d, 0xfa, 0x12, 0xfb, 0xf5, 0xf4, 0x0e, 0xfc, 0xf1, 0x11, 0x06, 0x00,
  0xfb, 0x02, 0x02, 0xfd, 0x0a, 0x09, 0x06, 0xfd, 0x01, 0xf9, 0xfa, 0x06,
  0x11, 0x07, 0x08, 0xfc, 0xf7, 0x0d, 0x01, 0x10, 0xfa, 0xf1, 0x00, 0xf9,
  0xff, 0xed, 0x07, 0xfd, 0xef, 0xfc, 0xf5, 0x09, 0x0f, 0x12, 0x0b, 0xfc,
  0x05, 0xef, 0xf6, 0x05, 0x00, 0xfe, 0xf5, 0x10, 0x0b, 0x0e, 0x06, 0xfc,
  0x0d, 0x02, 0xee, 0x05, 0xf1, 0xf6, 0xfc, 0x13, 0x00, 0x00, 0xef, 0x00,
  0xf7, 0xf1, 0xf0, 0x11, 0x02, 0xf0, 0x00, 0x06, 0xf6, 0x06, 0xf7, 0x11,
  0xf7, 0xee, 0xf1, 0xf5, 0x02, 0x0f, 0xf7, 0x05, 0xf4, 0xf5, 0xf2, 0xef,
  0xff, 0xff, 0x01, 0x10, 0xee, 0x0d, 0x0f, 0x06, 0x09, 0x03, 0xf7, 0x07,
  0x0f, 0xee, 0x12, 0x0e, 0x0d, 0xfd, 0xf6, 0x03, 0xfb, 0x05, 0xee, 0x0a,
  0xfb, 0x01, 0xf7, 0x02, 0xf2, 0x0a, 0x0b, 0xee, 0xf3, 0x00, 0xf2, 0x05,
  0xf2, 0xec, 0xfe, 0xf5, 0xee, 0x05, 0x03, 0x05, 0xef, 0x14, 0xf4, 0x0c,
  0xf3, 0x0b, 0x0c, 0x08, 0x12, 0x08, 0xfa, 0x06, 0x13, 0xf1, 0x09, 0xef,
  0xfd, 0x0c, 0x05, 0x02, 0x02, 0x00, 0xf6, 0x0b, 0x08, 0x0d, 0xf7, 0xfc,
  0xfb, 0x06, 0xef, 0x02, 0x0e, 0x0f, 0x07, 0xee, 0x12, 0xf7, 0x13, 0x01,
  0x05, 0xfb, 0x09, 0xf8, 0x0b, 0xfb, 0xf0, 0xfc, 0x0c, 0x00, 0xef, 0xef,
  0xfe, 0xf5, 0x03, 0xf9, 0xf3, 0x00, 0xec, 0x05, 0x02, 0xf3, 0xf7, 0xee,
  0x08, 0xee, 0xf0, 0x08, 0x0f, 0x09, 0x0b, 0xfb, 0x11, 0x10, 0xf6, 0xee,
  0xfa, 0x0b, 0x0a, 0xfa, 0xfc, 0x00, 0xf9, 0xef, 0x02, 0xf9, 0x11, 0x09,
  0x08, 0x0c, 0x06, 0xfa, 0xf3, 0xf4, 0xf9, 0x05, 0xf9, 0xed, 0xf6, 0x13,
  0x0c, 0xf3, 0xfc, 0xfc, 0xff, 0xfe, 0x10, 0x0b, 0x11, 0x10, 0x07, 0xff,
  0xf6, 0x12, 0x0e, 0x0f, 0xf2, 0xfc, 0x05, 0x07, 0x04, 0xfc, 0xee, 0xf9,
  0x13, 0x0c, 0xf3, 0x0b, 0x06, 0xee, 0x13, 0x07, 0x0d, 0x12, 0xf3, 0xf8,
  0xf2, 0x11, 0x0e, 0xfc, 0xfc, 0xff, 0x13, 0xef, 0xed, 0xfc, 0x0e, 0x13,
  0xf7, 0xf2, 0x12, 0x02, 0x0f, 0x0e, 0xfe, 0x13, 0x13, 0x12, 0x10, 0x03,
  0x00, 0x12, 0xef, 0x0d, 0xee, 0x02, 0xf0, 0xf4, 0xf7, 0x02, 0x10, 0xf9,
  0xf4, 0x10, 0xf4, 0x06, 0xfe, 0x07, 0x09, 0xf3, 0xfd, 0xfa, 0xf0, 0x11,
  0x07, 0xed, 0xf0, 0x0f, 0xf2, 0x12, 0x0a, 0xed, 0xf0, 0xf1, 0xf3, 0xee,
  0xf3, 0xf3, 0x0a, 0xfb, 0x0a, 0x11, 0x0f, 0x12, 0x13, 0x04, 0xf8, 0xf3,
  0x03, 0xfe, 0x04, 0xf9, 0xf9, 0x06, 0xf9, 0xf2, 0xfd, 0xf3, 0xec, 0xfd,
  0x05, 0xf7, 0xed, 0x13, 0xf4, 0xf5, 0xfb, 0x04, 0x03, 0xf3, 0x11, 0xef,
  0xfa, 0x02, 0xf1, 0xfe, 0xf1, 0xf2, 0xfc, 0xf2, 0x02, 0x12, 0xed, 0x02,
  0x0a, 0x0c, 0xf1, 0xf1, 0xf2, 0xfb, 0x0d, 0x04, 0xf2, 0x0c, 0x12, 0xf4,
  0x0c, 0x0f, 0x0a, 0xf9, 0x0f, 0x0b, 0xf4, 0xed, 0xf7, 0x07, 0xef, 0xf3,
  0x10, 0xee, 0x13, 0xf9, 0x0c, 0xfc, 0x11, 0x03, 0xf1, 0x0a, 0xee, 0xf8,
  0x0b, 0xfe, 0x09, 0x08, 0x07, 0x05, 0xee, 0x07, 0xfb, 0x06, 0x11, 0x11,
  0x08, 0x06, 0xf4, 0x01, 0x05, 0x0c, 0xfa, 0x09, 0x0d, 0x10, 0x10, 0xf9,
  0xec, 0xfc, 0xed, 0xfd, 0xff, 0xfa, 0x07, 0x0d, 0xfd, 0x10, 0xf8, 0x02,
  0x04, 0x08, 0x05, 0x0c, 0xf5, 0xf8, 0x0a, 0xf9, 0xfd, 0xf8, 0xfb, 0x03,
  0xee, 0x0d, 0xf5, 0x0e, 0x0f, 0xff, 0xf3, 0x01, 0xff, 0xf6, 0x0b, 0x0a,
  0x0d, 0xee, 0x12, 0xf9, 0xfa, 0x10, 0xef, 0x06, 0x03, 0x04, 0xed, 0xf1,
  0x13, 0xf6, 0x13, 0x03, 0x0a, 0xef, 0xf2, 0xee, 0xf3, 0xed, 0x0e, 0x0e,
  0x0c, 0xf9, 0xf7, 0xfb, 0xf0, 0xfc, 0x12, 0xf7, 0xfd, 0xfb, 0xf7, 0x0e,
  0xf4, 0xf3, 0xf1, 0x13, 0xf6, 0x11, 0xf8, 0x05, 0xee, 0xfb, 0x08, 0x0d,
  0xf2, 0xee, 0xef, 0x0a, 0xf1, 0x02, 0xf9, 0x11, 0xf6, 0x0a, 0xfb, 0xfa,
  0xf5, 0xf2, 0xf7, 0x06, 0xf8, 0x04, 0x12, 0xfd, 0x0b, 0x0b, 0xef, 0x03,
  0xff, 0x07, 0xf5, 0x02, 0xf0, 0xf9, 0xfe, 0xfd, 0x0b, 0xef, 0x13, 0xf0,
  0xfa, 0xf0, 0x05, 0x0e, 0xf3, 0xf4, 0xf5, 0xff, 0x02, 0x0d, 0x11, 0xf4,
  0x01, 0xf3, 0xf3, 0xfa, 0x10, 0x0e, 0x08, 0x0d, 0xf0, 0xf9, 0xf9, 0x12,
  0xef, 0xfa, 0x0c, 0xf4, 0x0d, 0x03, 0xf1, 0xf9, 0x05, 0xee, 0x0f, 0xf7,
  0xfa, 0x10, 0x06, 0x0d, 0x0f, 0xfe, 0xf5, 0xf2, 0x03, 0xf7, 0xf5, 0xf0,
  0xf2, 0xf4, 0xfe, 0x06, 0x0f, 0xfd, 0xee, 0xef, 0xfd, 0xf0, 0x12, 0xfe,
  0x00, 0xec, 0x0e, 0xfe, 0xf3, 0x0e, 0x03, 0x0f, 0x09, 0xf0, 0xf3, 0xef,
  0xfc, 0x11, 0xf2, 0xff, 0xf7, 0xf6, 0x07, 0x10, 0x05, 0x03, 0x01, 0x11,
  0x12, 0x03, 0x12, 0x0b, 0xfe, 0x0e, 0x0c, 0x01, 0xf1, 0xfe, 0xf9, 0xf9,
  0xef, 0xf9, 0xf0, 0x0c, 0xff, 0xf1, 0xfa, 0x0a, 0xee, 0x04, 0x08, 0x0d,
  0x12, 0x12, 0xf6, 0xff, 0xfa, 0xf7, 0x08, 0x08, 0xf4, 0x05, 0xfa, 0x00,
  0xee, 0xfb, 0xec, 0xf9, 0xf2, 0x08, 0xee, 0x06, 0x0b, 0x11, 0x12, 0x04,
  0x12, 0x03, 0x0f, 0xfd, 0x03, 0xfa, 0xf3, 0xef, 0x08, 0x09, 0xec, 0xf9,
  0x08, 0x09, 0xfb, 0xfa, 0xf5, 0xf2, 0xef, 0xfc, 0xef, 0xf1, 0xfc, 0x0c,
  0xef, 0x12, 0x03, 0xf8, 0x01, 0xf5, 0xf0, 0xf1, 0xf8, 0x01, 0xed, 0xf6,
  0x06, 0x0c, 0x01, 0x0c, 0xf0, 0x0b, 0xec, 0x06, 0x11, 0xf8, 0x08, 0xee,
  0x02, 0x0c, 0x09, 0x0f, 0x04, 0x00, 0xfe, 0xf3, 0x0d, 0x10, 0xff, 0x02,
  0x0e, 0x04, 0xee, 0x07, 0xed, 0x04, 0xf6, 0x08, 0xf6, 0x06, 0x06, 0xf0,
  0xf1, 0x0e, 0x0c, 0xf5, 0xf7, 0xfb, 0xf3, 0xf3, 0x00, 0x0c, 0xf5, 0x12,
  0x02, 0x02, 0x10, 0xff, 0xfb, 0x13, 0x12, 0xf3, 0xf1, 0x12, 0x0c, 0x0e,
  0xf9, 0x04, 0xfa, 0xf0, 0x0b, 0xf6, 0xfa, 0x0e, 0x11, 0x0a, 0x04, 0x11,
  0x06, 0xed, 0x01, 0x08, 0xf6, 0x04, 0x01, 0xfb, 0x00, 0x07, 0x00, 0xfa,
  0xf9, 0x01, 0xf2, 0x07, 0x06, 0xf5, 0x08, 0xec, 0xf0, 0x06, 0xf9, 0xfc,
  0x01, 0xed, 0x06, 0xf5, 0xec, 0xfb, 0x10, 0x0d, 0xfe, 0xee, 0x0c, 0xef,
  0x00, 0xed, 0xf4, 0xee, 0xfc, 0x09, 0x09, 0x13, 0x05, 0x0c, 0x0e, 0x02,
  0xf5, 0xee, 0x01, 0x0f, 0xf0, 0xf6, 0x07, 0x0c, 0x0a, 0xf2, 0x0d, 0x0b,
  0x0f, 0x0c, 0x06, 0x00, 0x01, 0xf3, 0x08, 0xfe, 0x0f, 0x01, 0xf2, 0xf4,
  0xf6, 0x06, 0xf4, 0x06, 0x0d, 0xfd, 0xf6, 0x08, 0xec, 0xec, 0x11, 0x0c,
  0x0b, 0xf5, 0x13, 0x05, 0x10, 0x0b, 0x00, 0x04, 0xf1, 0xf0, 0x08, 0x0b,
  0xfa, 0xfe, 0xed, 0x0b, 0xf5, 0x0f, 0x0d, 0xec, 0x02, 0x09, 0x0c, 0x12,
  0xfd, 0x11, 0x11, 0x11, 0x08, 0x11, 0x05, 0xef, 0xec, 0xf4, 0x0c, 0x01,
  0xfe, 0xf8, 0xf9, 0xfe, 0xf7, 0x08, 0xf7, 0xf3, 0x0f, 0xfd, 0xf9, 0xfc,
  0x00, 0x05, 0x08, 0x10, 0xfb, 0x0d, 0xef, 0x05, 0xfd, 0xf7, 0x04, 0xfd,
  0x0f, 0x05, 0xfe, 0x03, 0x06, 0x05, 0xf6, 0x10, 0xf1, 0xee, 0xf0, 0xf6,
  0x0f, 0x0e, 0x0a, 0x09, 0x04, 0xf7, 0x08, 0x11, 0x09, 0xef, 0x0a, 0x04,
  0x0d, 0xec, 0xf3, 0x04, 0x0b, 0xf2, 0xf1, 0x0e, 0x05, 0x12, 0x12, 0x0b,
  0xfb, 0x08, 0x0e, 0x0a, 0xff, 0xf0, 0xff, 0x12, 0x11, 0x01, 0xfe, 0x12,
  0x0c, 0xf9, 0xef, 0x12, 0xee, 0x0e, 0x0d, 0xf7, 0xff, 0xfa, 0xf0, 0xf9,
  0xfa, 0xfc, 0xf6, 0x00, 0xf8, 0xf9, 0xee, 0xf2, 0xf2, 0xfb, 0xef, 0xfd,
  0x08, 0x00, 0x13, 0x09, 0xf2, 0xf8, 0x05, 0xfb, 0x07, 0x04, 0x09, 0xef,
  0xf6, 0xf9, 0xf1, 0xf1, 0x12, 0xf2, 0x0a, 0x09, 0xfc, 0x0c, 0x05, 0xf7,
  0x00, 0x0a, 0xfa, 0xfd, 0x05, 0x0e, 0x0f, 0xf9, 0x12, 0x01, 0x0f, 0xf6,
  0x00, 0x08, 0xf8, 0x07, 0xf9, 0x05, 0x0d, 0x02, 0x01, 0x01, 0x0c, 0xf9,
  0xff, 0x0d, 0xf5, 0x0c, 0x05, 0x0c, 0xfe, 0x03, 0x08, 0x0d, 0x07, 0xfd,
  0xf7, 0x04, 0xff, 0xff, 0x06, 0x0f, 0xff, 0xf6, 0x0e, 0xff, 0xec, 0xfa,
  0x12, 0xef, 0x09, 0xf4, 0xf1, 0x0a, 0xfa, 0x0e, 0x0b, 0xf0, 0x12, 0xf3,
  0xf1, 0xf4, 0x07, 0xff, 0x04, 0xed, 0xee, 0x0d, 0x09, 0xf8, 0x0b, 0xed,
  0xf1, 0x0c, 0x09, 0xee, 0x12, 0x11, 0x05, 0x11, 0xf1, 0xf3, 0x10, 0xf3,
  0x00, 0x13, 0xff, 0x0e, 0x0f, 0xf0, 0x03, 0x05, 0xef, 0xef, 0x0f, 0xf6,
  0x01, 0xf2, 0xf2, 0xf0, 0xef, 0xf2, 0x08, 0xfc, 0x08, 0xf9, 0x04, 0x03,
  0x06, 0x03, 0xec, 0xfc, 0x02, 0xf5, 0xf4, 0x02, 0xec, 0xf7, 0x0d, 0x11,
  0xf9, 0xf6, 0x0c, 0xec, 0xfb, 0x0f, 0xfa, 0xfc, 0xf4, 0xfd, 0xee, 0xfa,
  0xee, 0xfa, 0xf9, 0xfa, 0xf0, 0xf7, 0x0d, 0xf0, 0x04, 0x05, 0xfa, 0x10,
  0x12, 0xfc, 0x03, 0xf8, 0x09, 0xee, 0xf0, 0x03, 0xff, 0x01, 0xf9, 0xf1,
  0xef, 0x0a, 0x0a, 0x12, 0xed, 0xfe, 0x08, 0x0b, 0x0a, 0xfb, 0xf2, 0xef,
  0xfe, 0xff, 0xf8, 0xed, 0xf7, 0x0c, 0xf0, 0xf1, 0xf9, 0x09, 0xf8, 0x0c,
  0xfb, 0xf7, 0x07, 0xee, 0x01, 0x0e, 0xf8, 0x11, 0x0c, 0xf7, 0x0a, 0xfd,
  0xfe, 0x11, 0xfd, 0x10, 0xfd, 0xf3, 0x0d, 0xf8, 0x02, 0x0f, 0xfa, 0x09,
  0xef, 0x04, 0x00, 0xfa, 0xec, 0xf2, 0x0c, 0xf4, 0x08, 0x0b, 0xfa, 0x0e,
  0x00, 0xfd, 0x09, 0x0b, 0xf7, 0x08, 0x07, 0xfe, 0x10, 0x01, 0x0f, 0xf3,
  0x11, 0xfe, 0xf1, 0xfd, 0x09, 0x07, 0xf0, 0xf6, 0x06, 0x02, 0x00, 0xec,
  0x06, 0xf8, 0xee, 0x0a, 0xec, 0xf0, 0xf9, 0xf6, 0x04, 0xf8, 0xfd, 0x0c,
  0x07, 0xf1, 0xef, 0x11, 0x07, 0xf8, 0xf7, 0xfb, 0xef, 0xec, 0xf8, 0x0d,
  0xfb, 0x10, 0x08, 0x0d, 0xf5, 0x03, 0xf8, 0xee, 0x0c, 0x0a, 0xf0, 0x02,
  0x0d, 0x0e, 0x0e, 0xfb, 0x0b, 0x03, 0xf9, 0x12, 0xfd, 0x0c, 0xfe, 0xf2,
  0xef, 0xf3, 0xf2, 0x00, 0xf4, 0xf9, 0x0f, 0xef, 0xf5, 0x0c, 0x10, 0xff,
  0xed, 0xf7, 0x06, 0xf4, 0xfc, 0x13, 0xf5, 0xf4, 0x01, 0xf0, 0x0e, 0xf8,
  0xf3, 0xf5, 0xf2, 0xfd, 0xfa, 0xf9, 0xf6, 0xfc, 0x04, 0xf3, 0xf0, 0xfe,
  0x03, 0xf7, 0xf4, 0x0d, 0x07, 0xfa, 0xec, 0x00, 0xf7, 0x0d, 0x01, 0xef,
  0x07, 0x10, 0xf6, 0xfe, 0x10, 0xf5, 0xf9, 0xfc, 0xf1, 0x09, 0xec, 0x0b,
  0x06, 0x09, 0xfe, 0xf1, 0xf3, 0x03, 0xfb, 0x13, 0xec, 0xf7, 0x0b, 0xfe,
  0x10, 0x03, 0x12, 0x07, 0xf4, 0x12, 0x0b, 0x0c, 0x05, 0xf7, 0xf2, 0x0a,
  0x02, 0xf8, 0xf4, 0x03, 0xf4, 0xf2, 0xf9, 0xec, 0xfd, 0x10, 0xfd, 0xed,
  0xfa, 0xfe, 0xfc, 0xfb, 0xf2, 0xec, 0x12, 0x07, 0xf3, 0x09, 0x09, 0x09,
  0xf4, 0x0a, 0x06, 0x0b, 0xf2, 0xff, 0xf5, 0x02, 0x00, 0x07, 0x0c, 0xef,
  0x0d, 0x08, 0x09, 0x02, 0xf7, 0xf8, 0x00, 0xf6, 0xf2, 0x0c, 0xed, 0x07,
  0x08, 0xf0, 0x09, 0x0f, 0xed, 0x0b, 0xf4, 0xfd, 0x04, 0xfe, 0xff, 0xf6,
  0x08, 0xf5, 0x03, 0xf4, 0x10, 0x0b, 0x0c, 0x09, 0xfd, 0x0b, 0xfe, 0x01,
  0xf8, 0x0e, 0xec, 0x05, 0xf2, 0xfc, 0xf5, 0x05, 0x06, 0xec, 0x13, 0x06,
  0x05, 0x07, 0x0b, 0x11, 0xfd, 0x07, 0xfe, 0xff, 0xf6, 0x11, 0x11, 0xfd,
  0x0f, 0x0c, 0xf0, 0x0f, 0xff, 0xfa, 0xfd, 0xf4, 0x04, 0xfa, 0xf2, 0xf2,
  0x08, 0x09, 0x03, 0x03, 0xf1, 0x09, 0x04, 0xf3, 0x0e, 0xec, 0xfb, 0x05,
  0x13, 0x04, 0x0a, 0xf1, 0x0b, 0xf8, 0xed, 0xf3, 0xf3, 0xef, 0x06, 0xf5,
  0x02, 0x0c, 0x12, 0x09, 0x13, 0x05, 0xec, 0xf8, 0xf4, 0xed, 0xfc, 0xfd,
  0xff, 0x10, 0x0e, 0x07, 0x06, 0xf6, 0x04, 0xf5, 0x01, 0xf4, 0x01, 0xfb,
  0xfc, 0xfa, 0xfb, 0x06, 0xf8, 0x0d, 0x02, 0x03, 0xf3, 0xfd, 0x12, 0xf0,
  0xf9, 0xf6, 0x0e, 0x02, 0xfc, 0xfd, 0xfb, 0x01, 0xee, 0x12, 0xf0, 0x02,
  0x01, 0xf3, 0xf5, 0x13, 0x09, 0x10, 0x08, 0x11, 0x0c, 0xfc, 0xf8, 0x0f,
  0x0d, 0x04, 0xf9, 0xf7, 0x0a, 0x0b, 0x05, 0xee, 0x01, 0xec, 0x11, 0xf6,
  0x0f, 0xfe, 0x09, 0x07, 0x04, 0x08, 0x06, 0x07, 0x0b, 0xfe, 0x13, 0xf0,
  0x07, 0x09, 0xf0, 0xf2, 0xed, 0x0b, 0xfd, 0x02, 0x07, 0xff, 0x04, 0xed,
  0x06, 0xf5, 0xec, 0x0a, 0xf8, 0xf2, 0xee, 0x01, 0x0b, 0x0b, 0xef, 0xfa,
  0xf8, 0x07, 0x02, 0x07, 0x0c, 0x09, 0xef, 0x01, 0xf7, 0xfc, 0x01, 0x05,
  0x03, 0x0c, 0xfc, 0xf7, 0x03, 0x0f, 0x04, 0x04, 0x10, 0xf9, 0x09, 0xed,
  0x0f, 0xf5, 0xfa, 0x0b, 0x07, 0x0b, 0x07, 0x0c, 0xee, 0x0a, 0x04, 0xf9,
  0x0f, 0x0a, 0xf6, 0xf2, 0x06, 0x08, 0x12, 0x13, 0x10, 0x0e, 0xf9, 0x05,
  0xed, 0xfe, 0x07, 0xf1, 0xec, 0x10, 0x0a, 0x08, 0x13, 0xff, 0xf3, 0x0b,
  0xf5, 0x11, 0x05, 0xf9, 0x04, 0xf7, 0x0d, 0xf2, 0x04, 0xfe, 0x12, 0xf0,
  0xfb, 0xee, 0xfd, 0x03, 0xf6, 0xee, 0xf2, 0x00, 0xfd, 0xf2, 0x08, 0xfb,
  0xf1, 0xf5, 0x10, 0xfc, 0x0f, 0x04, 0x0c, 0xef, 0x06, 0x05, 0x05, 0xf8,
  0x06, 0xef, 0xf4, 0xfc, 0x11, 0xf2, 0x12, 0x09, 0x06, 0x12, 0x08, 0x13,
  0xf0, 0x06, 0x05, 0x01, 0xee, 0xff, 0xee, 0x07, 0x12, 0xf0, 0xf7, 0xef,
  0xff, 0xf6, 0x04, 0xfe, 0xf8, 0x0f, 0xfa, 0x08, 0x0a, 0xef, 0x0c, 0x11,
  0x11, 0xf1, 0xf0, 0xfe, 0x04, 0x02, 0x03, 0xfd, 0x0e, 0xf8, 0x11, 0x08,
  0xfc, 0xfe, 0x11, 0x09, 0xfb, 0xf9, 0x0d, 0xfe, 0x05, 0xfa, 0xf3, 0xfa,
  0x12, 0x01, 0x0e, 0x12, 0xf1, 0xf1, 0xf3, 0x0d, 0x0a, 0xf7, 0x0d, 0x12,
  0x00, 0xfa, 0xfc, 0x0d, 0xf0, 0xf5, 0xfd, 0x0c, 0x0b, 0xf7, 0xfa, 0x11,
  0xf3, 0xfa, 0xfa, 0x04, 0xf2, 0x0f, 0xec, 0xf8, 0xff, 0x11, 0x0a, 0x08,
  0x13, 0xf6, 0xfa, 0xf2, 0x13, 0x05, 0x04, 0xf4, 0x10, 0x01, 0x01, 0x04,
  0x0f, 0x04, 0xf8, 0x04, 0x01, 0x0b, 0x06, 0xfd, 0x12, 0x0d, 0x05, 0xed,
  0x03, 0x10, 0xf7, 0xf1, 0xf0, 0xf0, 0x0c, 0x12, 0x03, 0xec, 0x0a, 0xfb,
  0x03, 0xef, 0x13, 0x04, 0xef, 0x07, 0x02, 0x02, 0x12, 0x05, 0x0a, 0xf2,
  0xfa, 0x0e, 0x09, 0xfa, 0x05, 0x12, 0xf4, 0x0c, 0x03, 0x12, 0x10, 0x12,
  0x09, 0xfd, 0xf3, 0xff, 0xf6, 0xfe, 0xec, 0xfc, 0xfe, 0x05, 0x0b, 0xff,
  0x08, 0x0e, 0x0f, 0x0f, 0xf8, 0x0b, 0x0b, 0x06, 0x12, 0x11, 0xf3, 0xff,
  0xef, 0x04, 0xf2, 0x0a, 0x07, 0xf7, 0x06, 0x04, 0x12, 0xf5, 0x12, 0x0f,
  0xfa, 0xf6, 0xee, 0xfa, 0x0e, 0xfb, 0x0c, 0x01, 0xfe, 0x08, 0xf8, 0x06,
  0xfe, 0xf1, 0xf8, 0x0d, 0xf2, 0xf6, 0x0d, 0xf8, 0xf2, 0xf0, 0x08, 0x02,
  0xf3, 0xf9, 0x07, 0xff, 0x09, 0x0f, 0xfa, 0x0d, 0x12, 0xf1, 0xf3, 0x0c,
  0xf2, 0x08, 0xff, 0x09, 0xf4, 0xfa, 0xf5, 0xfe, 0xf8, 0x0a, 0x08, 0xf8,
  0x01, 0x0d, 0x01, 0xec, 0x0a, 0xee, 0xef, 0x10, 0xf4, 0x11, 0x04, 0x03,
  0x07, 0xf5, 0x00, 0x12, 0xf5, 0x09, 0x0d, 0x05, 0x0d, 0x0a, 0xf6, 0xf2,
  0x05, 0xec, 0x12, 0xf8, 0xfe, 0x08, 0x07, 0xef, 0xfc, 0x11, 0xf2, 0xee,
  0xf4, 0xef, 0xec, 0xf0, 0xee, 0xf0, 0x04, 0xf9, 0x04, 0x0c, 0xec, 0xf2,
  0xfe, 0xed, 0xf0, 0x01, 0xf0, 0x0c, 0xf5, 0x11, 0xf8, 0x06, 0x07, 0xf4,
  0xf4, 0xf7, 0xf0, 0x07, 0x00, 0x0f, 0x11, 0x00, 0x0c, 0x0c, 0xf7, 0xfb,
  0x08, 0xf8, 0x13, 0xfc, 0x0d, 0x12, 0x02, 0x0b, 0xf5, 0xfc, 0x12, 0x12,
  0x0a, 0x09, 0x08, 0xfd, 0xfd, 0xf1, 0xfd, 0x01, 0x0c, 0xf3, 0xef, 0x03,
  0x00, 0x07, 0xf0, 0xf4, 0x09, 0xfe, 0xee, 0x0a, 0x0e, 0x04, 0xf8, 0xfa,
  0xf4, 0x08, 0xf9, 0x02, 0x0d, 0xed, 0x13, 0x09, 0xf8, 0x08, 0xfd, 0xf7,
  0xfe, 0xf6, 0xfa, 0xfe, 0x01, 0xf7, 0xff, 0x0e, 0x04, 0xf3, 0x10, 0x07,
  0xfd, 0x0a, 0xef, 0x01, 0xf9, 0x0b, 0x00, 0xf1, 0x01, 0xf3, 0x0d, 0x03,
  0x0a, 0xef, 0x02, 0x09, 0x13, 0x09, 0x13, 0x01, 0x10, 0xf8, 0x07, 0xf4,
  0xf4, 0x02, 0x10, 0x0e, 0xf2, 0xf9, 0x05, 0xf9, 0x01, 0x13, 0xf0, 0x01,
  0xff, 0x11, 0xf3, 0xed, 0x11, 0xf1, 0xfc, 0xf1, 0x0d, 0x07, 0x01, 0x02,
  0xf9, 0x0c, 0xf4, 0xf4, 0x0a, 0xf6, 0xed, 0x09, 0xf3, 0x01, 0x0a, 0x05,
  0xf8, 0xfa, 0xf2, 0xf9, 0x0c, 0xff, 0x03, 0xf0, 0xf7, 0xed, 0xf3, 0xee,
  0x13, 0xef, 0xf5, 0x0b, 0x10, 0xf5, 0x0a, 0x0c, 0xf4, 0x0c, 0x00, 0x06,
  0xf3, 0x11, 0x04, 0x10, 0xf4, 0x10, 0x10, 0x07, 0x07, 0xf0, 0x0c, 0xef,
  0xef, 0xed, 0x04, 0x03, 0xef, 0x0d, 0xf1, 0x06, 0xf4, 0x06, 0x0f, 0xee,
  0xff, 0x10, 0x06, 0x05, 0x0c, 0xfa, 0x06, 0x04, 0x10, 0x0f, 0x05, 0xf0,
  0xf8, 0xec, 0xf0, 0xf5, 0x12, 0xfd, 0x12, 0xf3, 0x07, 0xf0, 0xf8, 0xf2,
  0xfc, 0x08, 0xf3, 0x08, 0xee, 0x0b, 0x02, 0x12, 0x0d, 0xf1, 0x0a, 0x0f,
  0x0c, 0xf0, 0xfb, 0xfd, 0xf7, 0x01, 0x10, 0x0d, 0x0e, 0x10, 0x08, 0x11,
  0xf4, 0xf8, 0x0b, 0xf4, 0xfe, 0xf4, 0x05, 0x04, 0x03, 0x0c, 0xef, 0xf9,
  0xfd, 0x09, 0x09, 0x0f, 0xf6, 0xfa, 0xf9, 0xf2, 0x06, 0xf4, 0xff, 0xfa,
  0xee, 0xf4, 0xfd, 0xf0, 0xef, 0xf9, 0xf9, 0xff, 0xfb, 0xf6, 0xf6, 0xfa,
  0xf0, 0x04, 0xf6, 0x02, 0xf4, 0x07, 0x05, 0x11, 0x0a, 0x00, 0x12, 0x09,
  0x03, 0xfa, 0x06, 0xef, 0x0a, 0xf9, 0x07, 0x12, 0xfe, 0xf3, 0x0b, 0xf4,
  0x14, 0xf0, 0x07, 0xf8, 0x0a, 0x01, 0xef, 0xed, 0xf0, 0xf7, 0xf5, 0xfb,
  0x07, 0xf0, 0x11, 0xf3, 0x0e, 0xf6, 0x12, 0xed, 0xee, 0x0f, 0xf1, 0x13,
  0xfc, 0xfa, 0xf5, 0x06, 0x01, 0xf6, 0xff, 0x06, 0xec, 0xf3, 0xf7, 0x0f,
  0xf7, 0xf9, 0xf0, 0x05, 0x0c, 0xed, 0x0c, 0xf1, 0x07, 0x07, 0xf2, 0x01,
  0x03, 0x05, 0xfa, 0xf4, 0xf3, 0xf0, 0x0f, 0x0c, 0x0d, 0x0d, 0xf4, 0xef,
  0xfa, 0xef, 0x0f, 0x06, 0xf8, 0x12, 0xfd, 0xf3, 0x09, 0x0a, 0xff, 0x09,
  0xf9, 0x0a, 0x04, 0xfd, 0xfe, 0xfe, 0x00, 0xfe, 0xf7, 0x05, 0x02, 0xf4,
  0x0a, 0x14, 0x14, 0x0f, 0xfc, 0x0d, 0x04, 0xf7, 0x0f, 0x05, 0x06, 0x13,
  0x0e, 0x03, 0x08, 0xff, 0xfe, 0x06, 0x00, 0x0e, 0x13, 0x0c, 0xfc, 0xf0,
  0xf3, 0xf3, 0xf1, 0x13, 0x11, 0xef, 0xee, 0xf0, 0xf0, 0x10, 0x0a, 0x0a,
  0xfe, 0xf9, 0x04, 0xf1, 0xff, 0xf4, 0x06, 0xef, 0x0d, 0x03, 0x08, 0x0a,
  0xfb, 0x02, 0x10, 0x14, 0xfa, 0xf6, 0x02, 0x06, 0xf0, 0xf9, 0xf3, 0x08,
  0x0e, 0x0a, 0xf4, 0xff, 0x05, 0xf3, 0x0e, 0xfa, 0xfe, 0xfc, 0xf7, 0xf2,
  0xed, 0x00, 0xed, 0x0e, 0xf6, 0xf8, 0xf0, 0x05, 0xfc, 0x06, 0x02, 0xf2,
  0xee, 0x04, 0x13, 0xfd, 0x00, 0x14, 0x04, 0x02, 0x06, 0xf5, 0xed, 0xfa,
  0xf5, 0xfc, 0xf1, 0x11, 0xf0, 0xf1, 0x11, 0xf5, 0xf9, 0x0c, 0x04, 0xfe,
  0xfe, 0xf4, 0x0c, 0xf2, 0x01, 0xf5, 0x00, 0xf1, 0xf9, 0xf3, 0x09, 0xee,
  0xf2, 0xf4, 0x03, 0x10, 0x0c, 0xfe, 0x06, 0xf7, 0xf7, 0xf6, 0xf2, 0xfe,
  0x12, 0x05, 0x08, 0x0c, 0xed, 0xf9, 0xf4, 0xfc, 0x05, 0xee, 0xf8, 0x0c,
  0x11, 0x0e, 0x10, 0x0e, 0x12, 0xff, 0x13, 0x02, 0x01, 0xf0, 0x02, 0xf7,
  0xf4, 0x02, 0x12, 0x12, 0x07, 0xf8, 0xff, 0x01, 0xef, 0xf4, 0xef, 0x00,
  0xff, 0xf2, 0xed, 0xfc, 0xfd, 0xf0, 0xf0, 0x12, 0x03, 0xfc, 0x12, 0xfe,
  0xf1, 0x03, 0xf3, 0xff, 0x0f, 0xec, 0x03, 0x13, 0xfd, 0xf0, 0x0b, 0xef,
  0x0a, 0x13, 0xef, 0xf6, 0xf4, 0xf1, 0x05, 0x13, 0xf0, 0x0d, 0x01, 0xef,
  0xf0, 0xfa, 0x0b, 0xf7, 0x07, 0xf0, 0xf5, 0xfa, 0xf8, 0x0e, 0x00, 0x06,
  0x0c, 0x04, 0xf7, 0xff, 0xfd, 0x12, 0x0e, 0xf6, 0xf3, 0xfb, 0x0e, 0x03,
  0x12, 0x11, 0xf6, 0x0c, 0x09, 0x06, 0x03, 0x0b, 0x04, 0xf2, 0xf7, 0x03,
  0x0d, 0xff, 0xf9, 0xfd, 0x02, 0xfc, 0x10, 0x04, 0xfb, 0x02, 0x0d, 0xfd,
  0xfd, 0xf7, 0xfb, 0xf7, 0xf4, 0x00, 0xee, 0xf4, 0x09, 0xf5, 0xfe, 0xfa,
  0xfd, 0xef, 0x08, 0x00, 0xfa, 0x12, 0xf4, 0x0b, 0x11, 0x13, 0xef, 0x0c,
  0x0a, 0x08, 0x0a, 0xfd, 0x03, 0x0f, 0x07, 0xf9, 0x0c, 0x00, 0xed, 0xf0,
  0xee, 0xf2, 0x0b, 0xf3, 0xfb, 0xfe, 0x02, 0x06, 0xfc, 0x02, 0xf9, 0x00,
  0x0b, 0x0a, 0xed, 0x13, 0x0e, 0x08, 0x0f, 0x12, 0x02, 0xec, 0x0b, 0x02,
  0x00, 0x02, 0xee, 0xfc, 0xf7, 0x0f, 0x0f, 0x10, 0xff, 0x0e, 0x05, 0xf3,
  0x00, 0xf6, 0xf8, 0x08, 0x0b, 0xff, 0xf1, 0x08, 0xef, 0x06, 0x05, 0xef,
  0x00, 0x0a, 0x0b, 0x0f, 0xf2, 0xfe, 0x11, 0xf8, 0x01, 0xf6, 0xf9, 0x02,
  0x12, 0x0a, 0xed, 0xee, 0x0e, 0x0a, 0xf1, 0xf6, 0x0c, 0x0f, 0xff, 0x11,
  0xf9, 0x11, 0x14, 0xf1, 0xfc, 0xf4, 0x07, 0xf5, 0xfd, 0xf0, 0x10, 0x04,
  0x04, 0xef, 0x07, 0x05, 0xf0, 0x01, 0x05, 0xfb, 0xee, 0x0e, 0x02, 0x0e,
  0x05, 0x09, 0x0e, 0x02, 0x04, 0xef, 0xff, 0x09, 0x09, 0x02, 0x11, 0xf0,
  0xf4, 0xfc, 0x10, 0xf8, 0xf0, 0x09, 0xfc, 0x00, 0x06, 0xff, 0x0d, 0xf6,
  0xfc, 0x09, 0x0f, 0x08, 0x0d, 0xfd, 0x0e, 0xf6, 0xf5, 0xfb, 0x0d, 0xff,
  0x07, 0x10, 0xf1, 0x03, 0xed, 0xfa, 0x03, 0xf7, 0x04, 0xf4, 0x0f, 0x02,
  0x13, 0x0c, 0xf3, 0x09, 0xf7, 0x0b, 0xef, 0xf6, 0xfe, 0xfd, 0x0a, 0xf9,
  0x08, 0x13, 0x10, 0x11, 0x0e, 0x09, 0x01, 0xed, 0xf4, 0x04, 0x11, 0xf2,
  0x01, 0x09, 0x0a, 0x0b, 0x03, 0xef, 0xfe, 0xed, 0xf6, 0x06, 0x09, 0x02,
  0xfa, 0xfb, 0x09, 0x10, 0xee, 0xfa, 0x03, 0x09, 0x06, 0xf9, 0x13, 0xff,
  0x0d, 0x05, 0xef, 0xfa, 0xfe, 0x0d, 0x03, 0x08, 0xf6, 0x04, 0xf8, 0x06,
  0xf1, 0x0d, 0xfd, 0xf5, 0x13, 0xf0, 0xef, 0xf4, 0x0d, 0x02, 0xef, 0x05,
  0xfe, 0x01, 0x05, 0xf3, 0x00, 0x06, 0x0c, 0xfc, 0x0f, 0x13, 0xff, 0x09,
  0x08, 0x06, 0xf7, 0xf2, 0xf5, 0x07, 0xfa, 0x04, 0x05, 0xf2, 0xf1, 0x12,
  0xf6, 0x11, 0x09, 0xf2, 0xf0, 0xff, 0x02, 0x14, 0x00, 0xee, 0xf1, 0x12,
  0xf7, 0x02, 0x08, 0x0f, 0xf7, 0xed, 0x01, 0x01, 0x12, 0xed, 0xef, 0x00,
  0xf4, 0xf9, 0x08, 0xf5, 0xfe, 0xfa, 0x07, 0x10, 0x06, 0x11, 0x07, 0xfd,
  0xf2, 0xf4, 0xf2, 0xf7, 0xf1, 0xf5, 0x09, 0xf9, 0x13, 0xf5, 0xf1, 0xef,
  0xf7, 0x07, 0x0a, 0xf6, 0x01, 0xf7, 0xf7, 0x12, 0xfb, 0x0d, 0xef, 0x12,
  0xed, 0xfc, 0x02, 0xfa, 0x02, 0x11, 0xef, 0x13, 0xff, 0xf8, 0x03, 0xf6,
  0x03, 0x01, 0x02, 0xf2, 0xf5, 0xf9, 0xf8, 0x0e, 0xf8, 0x13, 0xff, 0x0d,
  0x10, 0x08, 0xfe, 0x0c, 0x0b, 0x0d, 0xf8, 0xf8, 0xfc, 0xfd, 0xfa, 0x0c,
  0x01, 0x00, 0x01, 0xf1, 0xfc, 0xf4, 0xff, 0xef, 0xf3, 0x05, 0x12, 0x06,
  0xed, 0xfe, 0xf8, 0x00, 0xee, 0x04, 0x0b, 0xf0, 0x00, 0x08, 0xf5, 0x10,
  0x0e, 0xfd, 0xf3, 0x10, 0x06, 0x07, 0x08, 0x0b, 0xfc, 0xf5, 0x06, 0xf4,
  0xf1, 0xed, 0xfa, 0xfe, 0xee, 0x03, 0x0c, 0xfa, 0x02, 0x05, 0xf9, 0x0d,
  0x04, 0x05, 0xee, 0x0f, 0x0e, 0x10, 0x0d, 0xed, 0x08, 0x06, 0x06, 0x08,
  0xfb, 0xf3, 0x11, 0x02, 0xfe, 0x05, 0x06, 0xf1, 0xf3, 0xf9, 0x0b, 0xfd,
  0xef, 0x12, 0xf9, 0x01, 0xff, 0x09, 0x03, 0xfd, 0x0e, 0x09, 0xf3, 0x04,
  0x13, 0xf7, 0x0a, 0xfb, 0xf0, 0x0b, 0xf0, 0x0b, 0x11, 0xf5, 0x11, 0x0e,
  0xf4, 0xee, 0x0b, 0x0c, 0xff, 0xf6, 0xf2, 0x07, 0xfd, 0x13, 0xf2, 0x09,
  0xfb, 0x05, 0x12, 0x05, 0xf9, 0xf4, 0xf9, 0x08, 0x09, 0xf3, 0x08, 0xee,
  0x01, 0xf6, 0x05, 0x02, 0x07, 0x0a, 0x09, 0x09, 0xff, 0xf8, 0x12, 0xf0,
  0xfb, 0x07, 0xf8, 0xf3, 0xef, 0xfb, 0x09, 0x0e, 0xfe, 0xf5, 0x02, 0x0d,
  0x01, 0xf1, 0x0c, 0x13, 0x09, 0xf1, 0x03, 0xfc, 0xfa, 0xf9, 0xf9, 0x03,
  0xfd, 0x02, 0xf7, 0x0e, 0xf2, 0x07, 0x0b, 0x02, 0xfa, 0xfd, 0xf6, 0xf8,
  0x03, 0xf3, 0xff, 0x0a, 0xf8, 0xef, 0xf4, 0x0f, 0xfb, 0xf5, 0x08, 0xef,
  0xfa, 0xf2, 0xf8, 0x10, 0x0d, 0xee, 0x0f, 0xf4, 0x08, 0xfa, 0xf4, 0xf7,
  0xf3, 0xfc, 0xff, 0x0a, 0x00, 0xf7, 0xfb, 0x08, 0xf0, 0xfb, 0x09, 0x0e,
  0x11, 0xfd, 0xef, 0xf3, 0xf2, 0xf8, 0x03, 0xf3, 0xf5, 0xed, 0x07, 0x0d,
  0x0d, 0x09, 0xf6, 0xfe, 0x0e, 0xef, 0xed, 0xf8, 0xff, 0xf1, 0xf2, 0xf9,
  0x0e, 0xf8, 0xf0, 0x0b, 0xf4, 0x12, 0x0e, 0x00, 0x0d, 0xf6, 0x0f, 0xf6,
  0x08, 0x10, 0xf1, 0x0d, 0xf2, 0x06, 0x07, 0x01, 0xf7, 0x0c, 0xef, 0xf0,
  0xef, 0x0c, 0x11, 0x0e, 0xf5, 0x0d, 0x0b, 0xff, 0x09, 0x11, 0xf2, 0x0c,
  0x09, 0xef, 0x0c, 0x05, 0x08, 0x03, 0xf8, 0x12, 0xf5, 0xf7, 0xf1, 0xff,
  0xef, 0xfa, 0x05, 0xf8, 0x0a, 0xf7, 0x07, 0x11, 0xff, 0x02, 0xf6, 0xef,
  0x01, 0xf1, 0xf3, 0xef, 0xef, 0xed, 0x0e, 0x06, 0xf4, 0x06, 0x07, 0xef,
  0xfc, 0x0c, 0xf6, 0x0e, 0x0b, 0x10, 0xf7, 0xf3, 0xfb, 0x0e, 0x0e, 0x06,
  0x02, 0x01, 0x00, 0xed, 0xee, 0x09, 0xef, 0x09, 0xfe, 0xec, 0x06, 0x0e,
  0x04, 0x04, 0x13, 0xfd, 0x0b, 0xf3, 0xf6, 0xf6, 0x0d, 0xf6, 0xf5, 0xf8,
  0x00, 0x0b, 0xf8, 0x00, 0xf2, 0xee, 0x05, 0x02, 0xf5, 0x0e, 0x0f, 0xed,
  0xfa, 0xf1, 0x02, 0x07, 0x07, 0xf4, 0xf6, 0x04, 0xfb, 0xee, 0xfb, 0x05,
  0x10, 0x0f, 0x03, 0x04, 0x00, 0xf2, 0xf9, 0x02, 0x04, 0xfb, 0xf4, 0x05,
  0x0a, 0xfd, 0x0a, 0x13, 0x12, 0xf9, 0x08, 0xf0, 0xf2, 0xfe, 0xef, 0x10,
  0xfa, 0x0e, 0x0c, 0xfb, 0x09, 0x04, 0x0f, 0xf7, 0xf2, 0x0c, 0x0f, 0x0f,
  0x02, 0x06, 0x13, 0x10, 0x0e, 0xff, 0x01, 0x04, 0x03, 0x07, 0xfc, 0x10,
  0xf9, 0xff, 0x00, 0xee, 0x00, 0x06, 0x11, 0xef, 0xf5, 0x0c, 0xf5, 0x08,
  0x09, 0xee, 0x01, 0x10, 0xf1, 0xf9, 0xec, 0x08, 0xed, 0xfa, 0xfc, 0x0a,
  0xfa, 0x03, 0x06, 0xfc, 0xf8, 0x02, 0xf0, 0xf1, 0x11, 0xfa, 0xf7, 0xfe,
  0x0c, 0x0a, 0xef, 0xfb, 0x04, 0xef, 0x12, 0xf4, 0xec, 0xf3, 0xf5, 0xf8,
  0x0d, 0x12, 0x03, 0x0b, 0x00, 0x0b, 0x08, 0xfa, 0x0c, 0x0a, 0xfd, 0x0b,
  0xed, 0x13, 0x12, 0x0f, 0xf5, 0xf0, 0xef, 0x05, 0x0b, 0xee, 0xf5, 0xfb,
  0x11, 0x09, 0xf3, 0xf7, 0xf2, 0xed, 0xf6, 0x04, 0xf4, 0xf7, 0xfc, 0x05,
  0x01, 0x0f, 0x07, 0xf9, 0x03, 0x0e, 0x0e, 0xfe, 0xfb, 0x08, 0x02, 0xf1,
  0xf7, 0xfd, 0xed, 0xf4, 0xf6, 0xf6, 0x00, 0x01, 0xfd, 0x10, 0x09, 0xfa,
  0x03, 0x0b, 0xf7, 0xf3, 0x12, 0x03, 0x01, 0x01, 0xfe, 0x00, 0xf2, 0x10,
  0xfa, 0x07, 0xed, 0x07, 0x0c, 0x06, 0x02, 0xf8, 0x0b, 0xf1, 0x07, 0x01,
  0x11, 0xf3, 0xef, 0xf6, 0xfc, 0xf8, 0x02, 0xf4, 0xed, 0x06, 0xec, 0xfe,
  0xf7, 0x0e, 0xff, 0x0b, 0x0a, 0xf9, 0xf8, 0x0c, 0xf8, 0x04, 0x05, 0x07,
  0x04, 0x08, 0x0f, 0x0a, 0xfa, 0x11, 0x0e, 0x04, 0x0b, 0x0d, 0xec, 0x0d,
  0xf1, 0xec, 0x06, 0xfe, 0x08, 0x07, 0x0b, 0xed, 0xf8, 0x0c, 0x07, 0x0c,
  0xef, 0xf7, 0x04, 0x00, 0x0c, 0xf0, 0xf8, 0x06, 0xff, 0xfc, 0x04, 0xfc,
  0xf8, 0x0a, 0xff, 0xf3, 0x05, 0x11, 0x0e, 0x05, 0xf5, 0x0f, 0xf1, 0xf3,
  0xfd, 0x03, 0x06, 0x05, 0x0e, 0xf5, 0x06, 0x01, 0x0a, 0xff, 0xfd, 0xed,
  0xfe, 0x06, 0x0b, 0x04, 0xf6, 0xf9, 0x0e, 0xf8, 0x0a, 0x12, 0x00, 0xf6,
  0xf0, 0xfa, 0x01, 0xff, 0xf5, 0x06, 0x11, 0x05, 0x06, 0x06, 0xfb, 0x13,
  0xf4, 0x0b, 0x03, 0xff, 0xf9, 0x0f, 0xed, 0xfb, 0xef, 0xf1, 0x04, 0xfd,
  0x05, 0xec, 0xfe, 0xf9, 0x02, 0xfb, 0xef, 0xf2, 0x01, 0xf4, 0x10, 0x01,
  0x01, 0x12, 0xf8, 0x12, 0x0f, 0x0c, 0xf4, 0x0b, 0x01, 0x0b, 0xf1, 0x0f,
  0xf7, 0xef, 0xf0, 0xf6, 0x0e, 0x0b, 0xfe, 0x10, 0x0c, 0xfa, 0x0a, 0xfc,
  0xed, 0xf5, 0x0f, 0xf4, 0x10, 0xef, 0xf9, 0xfb, 0xf9, 0x0a, 0xf0, 0x01,
  0x0d, 0xf3, 0xff, 0xf2, 0x05, 0x12, 0xfa, 0xee, 0x13, 0x08, 0x06, 0xf2,
  0x11, 0xfa, 0xf0, 0x09, 0xfe, 0x0c, 0xee, 0x0d, 0xf1, 0xf5, 0x05, 0x0a,
  0x05, 0x0b, 0x0c, 0x10, 0xfc, 0xf4, 0x03, 0x07, 0xf9, 0xff, 0x0e, 0x0a,
  0xf1, 0xf5, 0x04, 0x0b, 0x01, 0x0b, 0x09, 0xf6, 0x02, 0xf1, 0xef, 0x0e,
  0x07, 0x06, 0xf9, 0x0b, 0xfe, 0xed, 0xfe, 0x0a, 0x08, 0x00, 0xfb, 0x11,
  0x07, 0xf4, 0x0a, 0x11, 0x0e, 0x00, 0x0b, 0x10, 0xef, 0x0d, 0x09, 0xf3,
  0x02, 0xf4, 0xfc, 0xfd, 0xf4, 0xfe, 0xf6, 0xf3, 0x09, 0x05, 0xfb, 0xf2,
  0x13, 0x09, 0xf1, 0x0a, 0xf0, 0xf6, 0xf7, 0xf1, 0xfc, 0xf2, 0x13, 0x0a,
  0x06, 0x0a, 0x0a, 0xfa, 0xf3, 0x13, 0xf9, 0x0c, 0xec, 0xff, 0xed, 0x08,
  0x02, 0x0a, 0x0c, 0x0c, 0x09, 0x08, 0xfb, 0x0a, 0xef, 0x06, 0xf4, 0xfe,
  0x09, 0x07, 0xf6, 0x0d, 0x05, 0x0f, 0xf3, 0x07, 0x02, 0xff, 0x04, 0xfd,
  0x10, 0x07, 0x04, 0xf2, 0x0b, 0xf7, 0x0c, 0x06, 0x0f, 0x12, 0x12, 0xfe,
  0xed, 0x01, 0xf7, 0x0e, 0x00, 0x12, 0xf1, 0x00, 0x0c, 0xed, 0x10, 0xec,
  0x00, 0xfa, 0xf3, 0x0e, 0xf1, 0xf8, 0xee, 0xf5, 0x0e, 0x11, 0x12, 0x02,
  0xf8, 0x13, 0x02, 0x10, 0xf5, 0xf4, 0xf5, 0x0f, 0x06, 0x10, 0x07, 0x11,
  0xf2, 0xfc, 0x07, 0xfb, 0xf4, 0xec, 0xfa, 0xf8, 0x0d, 0xf8, 0xed, 0x0b,
  0xf2, 0xff, 0xff, 0x03, 0xfb, 0x10, 0xf9, 0xfe, 0xfe, 0xf0, 0xf9, 0xf8,
  0x0c, 0xef, 0x04, 0x08, 0xff, 0xf0, 0xfe, 0x11, 0xf5, 0xf1, 0xf7, 0x13,
  0x0f, 0x07, 0xfe, 0xee, 0x0b, 0xf5, 0x02, 0xfe, 0x0b, 0xfa, 0xf1, 0xf4,
  0x0e, 0x12, 0x10, 0x11, 0x0e, 0xfe, 0xfc, 0x0b, 0xf2, 0xfb, 0xef, 0x0b,
  0x10, 0xf4, 0xef, 0xff, 0x03, 0x04, 0xf9, 0xfa, 0x00, 0x11, 0xfa, 0xf8,
  0x04, 0x0f, 0xed, 0xed, 0xf2, 0xee, 0x00, 0xed, 0x08, 0xfb, 0xf0, 0x0a,
  0xee, 0xf4, 0xf0, 0xf0, 0xec, 0x12, 0x0b, 0x0b, 0xff, 0x09, 0xfa, 0xf8,
  0xee, 0xf2, 0x12, 0x08, 0xff, 0xf0, 0xf3, 0xfc, 0xef, 0xfa, 0x07, 0x0c,
  0xf0, 0x02, 0x0b, 0xff, 0x09, 0xf6, 0xfc, 0xf8, 0xff, 0xfd, 0x04, 0xfe,
  0x13, 0x07, 0xf4, 0x0e, 0x07, 0x10, 0xf5, 0x0a, 0xfa, 0xf4, 0x0a, 0xfb,
  0xfb, 0xed, 0xfd, 0xff, 0x0a, 0x02, 0x12, 0xfd, 0xf7, 0xf0, 0xf9, 0x0c,
  0xf1, 0x0a, 0xf9, 0xf0, 0xfe, 0x10, 0x0d, 0x02, 0x06, 0xf3, 0xed, 0xfb,
  0xfe, 0xf2, 0xed, 0xfb, 0xf2, 0x04, 0x11, 0xf9, 0xed, 0xf2, 0xf2, 0x12,
  0x11, 0xee, 0xfe, 0x04, 0x04, 0x12, 0xf3, 0x09, 0xfc, 0x03, 0x0a, 0xf1,
  0x08, 0x03, 0x07, 0xfc, 0xec, 0x10, 0x02, 0x0a, 0xf6, 0x12, 0x05, 0x02,
  0x10, 0x09, 0x07, 0xef, 0x11, 0x11, 0xf8, 0xee, 0x03, 0xee, 0x12, 0x13,
  0x05, 0xf9, 0xee, 0x10, 0x09, 0xfb, 0xfe, 0x05, 0x11, 0xf0, 0x10, 0x11,
  0xf7, 0xf4, 0xf6, 0xf4, 0xf8, 0x0b, 0x04, 0x0c, 0x0a, 0xfe, 0xee, 0xff,
  0xfc, 0xf2, 0x01, 0x07, 0x12, 0x00, 0xec, 0x04, 0xf4, 0x13, 0x0e, 0xfb,
  0xfe, 0x09, 0x02, 0x07, 0xf7, 0x03, 0xf4, 0xef, 0xe9, 0x03, 0x3f, 0x08,
  0xec, 0xec, 0xe5, 0xfa, 0x04, 0xfa, 0xdb, 0xf4, 0xf8, 0xe9, 0x24, 0x07,
  0xf4, 0x04, 0xdb, 0xf8, 0x26, 0xfd, 0xf9, 0xfe, 0xf9, 0xfa, 0x48, 0x00,
  0xe4, 0xef, 0xf9, 0xf0, 0x4d, 0xf2, 0xe3, 0x07, 0xf5, 0xe6, 0x4a, 0xee,
  0xec, 0x05, 0xf7, 0xed, 0x26, 0xe8, 0xe3, 0x0f, 0xfe, 0xf9, 0x29, 0xf6,
  0xea, 0x07, 0x0d, 0xfa, 0x26, 0xf1, 0xff, 0x09, 0xfa, 0xf1, 0x31, 0xff,
  0xe9, 0xf3, 0x11, 0x06, 0x12, 0xfe, 0xf2, 0x0c, 0x1e, 0x05, 0x1e, 0x02,
  0xe9, 0x13, 0x0d, 0x02, 0x13, 0x10, 0xf5, 0x03, 0x25, 0x22, 0x11, 0x06,
  0xf0, 0x10, 0x19, 0x28, 0x24, 0x05, 0xed, 0xf6, 0x26, 0x3d, 0x36, 0x12,
  0xfa, 0x0a, 0x2a, 0x42, 0x3b, 0xfc, 0xdb, 0x04, 0x2c, 0x50, 0x44, 0xf3,
  0xdc, 0xee, 0x3c, 0x39, 0x5b, 0xf8, 0x00, 0xfe, 0x1c, 0x48, 0x44, 0x11,
  0xec, 0xef, 0x22, 0x46, 0x52, 0x03, 0xe8, 0xfa, 0x26, 0x3a, 0x4e, 0xf0,
  0xf8, 0x0b, 0x20, 0x3b, 0x41, 0xf4, 0xf4, 0xea, 0x1c, 0x49, 0x2d, 0xea,
  0x08, 0xf6, 0x1f, 0x2a, 0x43, 0xf2, 0x09, 0x02, 0x20, 0x31, 0x40, 0xee,
  0xf8, 0xee, 0x39, 0x2f, 0x42, 0xeb, 0xf1, 0xee, 0x20, 0x1f, 0x31, 0xe8,
  0xfd, 0xeb, 0x3d, 0x1e, 0x35, 0xf8, 0x07, 0x06, 0x3e, 0x0f, 0x56, 0xee,
  0xec, 0xea, 0x29, 0xf9, 0x41, 0x0f, 0xea, 0xf3, 0x2f, 0x14, 0x43, 0x0f,
  0xf0, 0xee, 0x19, 0x15, 0x34, 0xeb, 0x03, 0xf2, 0x18, 0xf5, 0x3b, 0xf4,
  0x10, 0xe2, 0x25, 0x00, 0x23, 0xf9, 0x00, 0x02, 0x38, 0x05, 0x1f, 0x0b,
  0x03, 0xee, 0x2c, 0x09, 0x3d, 0xfb, 0xf5, 0xe7, 0x25, 0xfc, 0x20, 0x0a,
  0x13, 0xf5, 0x1e, 0xff, 0x30, 0x08, 0xfc, 0xfd, 0x38, 0xfd, 0x4b, 0x0a,
  0xf9, 0xed, 0x33, 0xdd, 0x36, 0xfc, 0xf5, 0x04, 0x28, 0xf8, 0x35, 0xf8,
  0xfb, 0xf1, 0x1f, 0xf0, 0x4e, 0x07, 0x13, 0xf2, 0x38, 0xed, 0x4b, 0xff,
  0xf7, 0x05, 0x35, 0x03, 0x4f, 0x06, 0x1b, 0xf1, 0x27, 0xee, 0x45, 0xef,
  0x1d, 0xf2, 0x19, 0xf3, 0x2e, 0xf3, 0x03, 0xfe, 0x1c, 0x0f, 0x3b, 0xf6,
  0x16, 0xf4, 0x34, 0x0e, 0x2d, 0x06, 0x10, 0xfd, 0x1b, 0x00, 0x25, 0x0c,
  0x1d, 0xfe, 0x12, 0xf3, 0x30, 0x0b, 0x1b, 0x0e, 0x26, 0x09, 0x2f, 0xf5,
  0x22, 0xec, 0x25, 0x0b, 0x14, 0xe9, 0x04, 0xf0, 0x24, 0xee, 0x0f, 0xf7,
  0x1d, 0xe8, 0x28, 0x05, 0x1a, 0x05, 0x18, 0xe9, 0x1e, 0x03, 0x0b, 0xef,
  0x1e, 0x02, 0x13, 0xef, 0x1b, 0xf5, 0x28, 0xfd, 0x0e, 0x0a, 0x10, 0xec,
  0x05, 0x02, 0x27, 0x0e, 0xf4, 0x03, 0x12, 0xfe, 0x05, 0xef, 0xfc, 0xf8,
  0x21, 0x0b, 0x1d, 0x08, 0xf3, 0xe8, 0x27, 0xe7, 0x17, 0xfb, 0xfd, 0xf8,
  0x0f, 0x00, 0x17, 0x0b, 0xe6, 0xff, 0x18, 0x02, 0x1c, 0xf9, 0xe4, 0xf9,
  0x18, 0x03, 0x02, 0x20, 0xea, 0xf5, 0x04, 0x0a, 0x09, 0x07, 0xea, 0xf5,
  0x19, 0xf1, 0xff, 0xfc, 0xfe, 0x04, 0x04, 0x00, 0xfe, 0x17, 0xe6, 0xff,
  0x0b, 0xfb, 0x11, 0x1d, 0xf1, 0xff, 0x17, 0xf1, 0x10, 0xf7, 0xd5, 0xf8,
  0x0b, 0xfa, 0x0b, 0xfa, 0xe5, 0xf3, 0x09, 0xe0, 0xff, 0x14, 0xd8, 0xfc,
  0x1b, 0x01, 0x05, 0x0d, 0xf2, 0xf1, 0x16, 0xe3, 0x1a, 0x08, 0xe2, 0xf9,
  0xfc, 0xe2, 0x12, 0xf5, 0xdd, 0xe4, 0xff, 0xe2, 0x1a, 0x0b, 0xd8, 0xe6,
  0x0b, 0xf2, 0x08, 0x17, 0xd5, 0xf5, 0x07, 0xe5, 0x1a, 0x14, 0xcd, 0xec,
  0x14, 0xe6, 0x08, 0xf7, 0xe9, 0x0a, 0x04, 0xff, 0xfd, 0xfc, 0xef, 0xfe,
  0x09, 0xf0, 0xff, 0x06, 0xcd, 0xf3, 0xf5, 0xe8, 0x00, 0x09, 0xcf, 0x00,
  0x0e, 0xde, 0x16, 0xf1, 0xd3, 0xff, 0xf7, 0xe2, 0x04, 0x04, 0xca, 0xf1,
  0x0a, 0xf0, 0x15, 0xf5, 0xea, 0xf1, 0x0e, 0xf0, 0xfb, 0xf7, 0xe5, 0x03,
  0xf2, 0xff, 0x04, 0xef, 0xc5, 0xfe, 0xef, 0xea, 0xfa, 0xfc, 0xdf, 0xf4,
  0xf7, 0xf4, 0x13, 0xf6, 0xe2, 0xe9, 0xfc, 0x02, 0xfb, 0xf9, 0xe7, 0x00,
  0xff, 0xfc, 0xf4, 0x07, 0xd8, 0xfe, 0xff, 0xdf, 0x0c, 0x03, 0xd2, 0xe9,
  0x08, 0xeb, 0x0b, 0xf6, 0xc6, 0xeb, 0xfd, 0xf4, 0x0d, 0xe2, 0xdc, 0xe6,
  0x0f, 0xf0, 0x0e, 0xf6, 0xc7, 0xeb, 0x09, 0xfe, 0x04, 0xef, 0xcf, 0x01,
  0xfb, 0x00, 0x02, 0xe2, 0xde, 0xeb, 0xef, 0xfb, 0xf5, 0xd1, 0xc5, 0xf4,
  0x01, 0x03, 0xe9, 0xf2, 0xd2, 0x0b, 0xfc, 0xfb, 0x04, 0xe4, 0xc8, 0xf9,
  0x07, 0x01, 0xf3, 0xf5, 0xcd, 0x00, 0x09, 0x01, 0xf2, 0xe4, 0xd0, 0xf0,
  0xea, 0xf3, 0xea, 0xe2, 0xdb, 0xfb, 0xff, 0x09, 0x08, 0xf6, 0xce, 0xe8,
  0xe9, 0xf5, 0xef, 0xfe, 0xd0, 0xeb, 0xf4, 0xea, 0xe7, 0xf9, 0xe4, 0xea,
  0xe4, 0xf3, 0xee, 0xdd, 0xec, 0x01, 0x08, 0xee, 0xef, 0xeb, 0xe4, 0xe6,
  0xff, 0xff, 0x06, 0xda, 0xf4, 0xf4, 0x00, 0xf7, 0xf3, 0xdc, 0xe1, 0x08,
  0x07, 0xec, 0xec, 0xe1, 0xf4, 0x0b, 0xed, 0xec, 0xff, 0xe4, 0xdd, 0xf7,
  0xec, 0xef, 0x00, 0xda, 0xf7, 0x03, 0xfd, 0xf2, 0xfe, 0x00, 0xf6, 0xec,
  0xee, 0xe8, 0xfd, 0xf8, 0xd7, 0xf6, 0xf6, 0xf1, 0xf3, 0xe5, 0xdf, 0xed,
  0x07, 0xf2, 0xf7, 0xf7, 0xe8, 0x03, 0xef, 0xfd, 0x00, 0xe6, 0xda, 0xfd,
  0xf6, 0xeb, 0x11, 0x1a, 0x45, 0x23, 0xda, 0xdc, 0x01, 0x1f, 0x35, 0x1e,
  0xf4, 0xf6, 0xf2, 0xfc, 0x44, 0x03, 0xf9, 0xf0, 0x0b, 0xf5, 0x51, 0x21,
  0xf0, 0xf3, 0x14, 0xdf, 0x6b, 0x0f, 0xe6, 0xf3, 0xfd, 0xef, 0x7f, 0x1a,
  0xf9, 0xdd, 0xf6, 0xe6, 0x75, 0x00, 0xe6, 0xe7, 0x08, 0xc0, 0x55, 0x02,
  0x05, 0xe4, 0xf5, 0xbe, 0x37, 0x13, 0x0b, 0xed, 0xfd, 0xc0, 0x44, 0x21,
  0xf8, 0xf1, 0xf9, 0xc2, 0x30, 0x1a, 0x07, 0xd9, 0x04, 0xbb, 0x2e, 0x18,
  0x03, 0xfe, 0x0b, 0xaa, 0x50, 0x02, 0x0a, 0xfb, 0x0e, 0x99, 0x50, 0x24,
  0xfd, 0xfb, 0x0c, 0xa7, 0x2c, 0x0a, 0x06, 0xfe, 0xf5, 0x96, 0x40, 0x09,
  0x07, 0xe7, 0x12, 0x85, 0x1f, 0x1c, 0x13, 0x0b, 0x07, 0x94, 0x3f, 0x07,
  0x07, 0xfa, 0x11, 0x97, 0x68, 0x1c, 0x15, 0xf8, 0x11, 0xbe, 0x64, 0x0a,
  0x0e, 0xf6, 0xff, 0xbe, 0x5d, 0x1c, 0x11, 0x07, 0x11, 0xe2, 0x65, 0x28,
  0x0e, 0x07, 0xfd, 0xe3, 0x4a, 0x0c, 0xff, 0xfc, 0xfe, 0xd1, 0x32, 0x09,
  0x23, 0x1a, 0x01, 0xd6, 0x41, 0x1b, 0x23, 0xfc, 0x18, 0xc3, 0x30, 0x09,
  0xff, 0x06, 0x08, 0xca, 0x11, 0xfc, 0x18, 0x0f, 0x02, 0xd6, 0x14, 0x01,
  0x08, 0x01, 0x03, 0xc0, 0x29, 0xfc, 0x09, 0x0a, 0xfa, 0xd8, 0x36, 0x08,
  0x04, 0x0d, 0x0d, 0xd1, 0x3a, 0x12, 0x05, 0x29, 0x06, 0xe1, 0x16, 0x26,
  0xfc, 0x22, 0x13, 0xea, 0x1b, 0x08, 0x12, 0x2c, 0x0c, 0x06, 0x11, 0x23,
  0x1c, 0x23, 0x08, 0x02, 0xf1, 0x0e, 0x1a, 0x23, 0x13, 0xf8, 0xeb, 0x0e,
  0xfe, 0x18, 0x21, 0x01, 0xe9, 0x2d, 0x20, 0x1c, 0x0f, 0xf4, 0xed, 0x1f,
  0x0c, 0x12, 0x0a, 0x0c, 0xf3, 0x2d, 0x15, 0x16, 0x23, 0xf3, 0xed, 0x26,
  0x12, 0x18, 0x12, 0xf2, 0x00, 0x16, 0xfa, 0x25, 0x0b, 0x1b, 0xfd, 0x1a,
  0x13, 0x16, 0x20, 0x00, 0xfb, 0x21, 0xf4, 0x1e, 0x1f, 0x0c, 0xf9, 0x09,
  0x11, 0x20, 0x0a, 0x1f, 0xf4, 0x27, 0x19, 0x27, 0x0d, 0x1d, 0x01, 0x16,
  0xf9, 0x24, 0x09, 0x36, 0xf9, 0x0c, 0x0d, 0x27, 0x26, 0x4c, 0xea, 0x13,
  0x0f, 0x18, 0x0b, 0x35, 0xfe, 0x1d, 0xfa, 0x06, 0x2c, 0x4c, 0x08, 0x0c,
  0x04, 0x25, 0x15, 0x3d, 0x04, 0x0d, 0x05, 0x08, 0x15, 0x50, 0x17, 0x1c,
  0x0d, 0x1a, 0x1d, 0x50, 0x11, 0x0c, 0x14, 0x05, 0x27, 0x61, 0x0e, 0x23,
  0x11, 0x07, 0x1f, 0x53, 0xff, 0x09, 0x00, 0xfe, 0x25, 0x50, 0x14, 0x23,
  0xf8, 0xff, 0x14, 0x3d, 0x15, 0x14, 0x12, 0x07, 0x21, 0x33, 0x03, 0x02,
  0x16, 0xf7, 0x25, 0x48, 0x0b, 0xff, 0xf4, 0x04, 0x21, 0x3a, 0x16, 0x13,
  0x0b, 0xfc, 0x0c, 0x53, 0x19, 0x0a, 0x19, 0xef, 0x09, 0x39, 0x15, 0x11,
  0x11, 0xfb, 0x08, 0x52, 0x0c, 0xfc, 0x11, 0xf0, 0x09, 0x2d, 0x1b, 0x15,
  0xff, 0x0b, 0x26, 0x3a, 0x21, 0xfd, 0x04, 0x02, 0x27, 0x51, 0x24, 0xf9,
  0xfc, 0xf9, 0x17, 0x3b, 0x12, 0xff, 0xff, 0xea, 0x23, 0x40, 0x09, 0x1b,
  0x1b, 0xef, 0x07, 0x3e, 0x07, 0xfd, 0x17, 0xe0, 0x09, 0x46, 0x01, 0xf9,
  0x06, 0xf9, 0x1a, 0x29, 0x0c, 0x14, 0x01, 0xf6, 0x27, 0x2f, 0xfd, 0x15,
  0x1d, 0xdd, 0x05, 0x14, 0x11, 0x17, 0xfe, 0xf0, 0x20, 0x21, 0x05, 0x0b,
  0x07, 0x00, 0x1a, 0x25, 0x15, 0x12, 0x0c, 0xfe, 0x26, 0x0f, 0x1a, 0xfa,
  0x17, 0xff, 0x24, 0x13, 0x1c, 0xf9, 0x10, 0xeb, 0x1f, 0x2b, 0xf5, 0xfd,
  0x03, 0xdd, 0x14, 0x23, 0x08, 0x06, 0xfe, 0xe5, 0x09, 0x22, 0x09, 0x0a,
  0x05, 0x00, 0x14, 0x0d, 0xec, 0x04, 0x09, 0xf2, 0x02, 0x16, 0xe6, 0xfb,
  0x10, 0x01, 0x01, 0x09, 0xe8, 0x0e, 0x0b, 0xf2, 0x00, 0xfc, 0xd7, 0xef,
  0x0e, 0xfa, 0x20, 0x14, 0xe0, 0xf8, 0x09, 0xe8, 0x04, 0xfb, 0xf3, 0x07,
  0x17, 0xf8, 0x0e, 0x1d, 0xed, 0x0d, 0x1c, 0xf1, 0x0e, 0x26, 0xef, 0xf5,
  0x1d, 0xe8, 0xff, 0x1f, 0xd1, 0xef, 0x06, 0xf5, 0x16, 0x12, 0xde, 0x09,
  0x14, 0xee, 0x12, 0xfe, 0xc5, 0x03, 0x03, 0xe8, 0x11, 0x13, 0xd1, 0xf6,
  0x19, 0xff, 0x0b, 0xf6, 0xdc, 0x09, 0x07, 0xef, 0x06, 0xf3, 0xe4, 0xfc,
  0x14, 0xec, 0x1b, 0xfc, 0xd1, 0xf9, 0x00, 0xfb, 0xf7, 0xdd, 0xd5, 0x13,
  0xfe, 0xe3, 0x11, 0xdf, 0xe4, 0x0e, 0x12, 0xe9, 0xf8, 0xeb, 0xe0, 0x02,
  0xfd, 0xfc, 0xec, 0xe7, 0xd8, 0x08, 0xef, 0xe6, 0xfc, 0xdb, 0xe5, 0xf6,
  0xfa, 0xf9, 0xf3, 0xde, 0xc8, 0xf8, 0xf3, 0xef, 0x0f, 0xe1, 0xd8, 0x05,
  0x00, 0xf7, 0x03, 0xfd, 0xca, 0x0b, 0xfa, 0xf7, 0xed, 0xea, 0xf3, 0x07,
  0xf5, 0xf4, 0x09, 0xe4, 0xe8, 0xfb, 0xf4, 0xec, 0xf8, 0x01, 0xea, 0xf2,
  0xe6, 0xfc, 0xf1, 0xfc, 0xf1, 0xf2, 0x02, 0x0b, 0xef, 0xd8, 0xe7, 0x0f,
  0x05, 0xf3, 0xf5, 0xd7, 0xfd, 0x11, 0xfb, 0x04, 0xfd, 0xcc, 0xf1, 0xf7,
  0xee, 0xee, 0x09, 0xf0, 0x02, 0x0a, 0xeb, 0x01, 0xfb, 0xf8, 0xf2, 0xf1,
  0xfc, 0xf8, 0x02, 0xf5, 0xef, 0x10, 0xf0, 0x0c, 0x0d, 0xe7, 0x03, 0x12,
  0x0f, 0x05, 0xfc, 0xe1, 0xf3, 0x0c, 0xf7, 0x05, 0xfb, 0xf2, 0xe2, 0xf4,
  0x10, 0x06, 0x07, 0xf0, 0xfd, 0x07, 0x0e, 0x00, 0x05, 0xf1, 0xe9, 0x10,
  0xf6, 0x0c, 0x10, 0xe8, 0xe9, 0x03, 0xf3, 0x01, 0x11, 0xef, 0x12, 0xfc,
  0x00, 0xf7, 0xf1, 0x0b, 0xf4, 0xf6, 0x10, 0xf9, 0x06, 0xee, 0x0f, 0x12,
  0x12, 0x08, 0xf7, 0x0f, 0xec, 0xee, 0xf6, 0x04, 0xf0, 0x05, 0xf1, 0xf6,
  0x0c, 0x06, 0xfc, 0x05, 0xfe, 0xfe, 0x0f, 0x0f, 0x13, 0x07, 0x07, 0x0a,
  0xf9, 0x01, 0xee, 0xf3, 0x06, 0xfe, 0x09, 0x0b, 0xf3, 0x11, 0x00, 0x01,
  0x0d, 0xf0, 0x0c, 0xfc, 0x12, 0xf9, 0x06, 0xf6, 0xf0, 0xf6, 0x0d, 0xfc,
  0x01, 0xf5, 0x04, 0x02, 0x09, 0xfe, 0xf1, 0x01, 0x0c, 0xed, 0x09, 0xfc,
  0x00, 0xf2, 0xff, 0x09, 0x09, 0xf1, 0xfe, 0xff, 0xf7, 0xed, 0x04, 0x0a,
  0xef, 0x0b, 0x0b, 0xee, 0xff, 0x0f, 0xfb, 0xf7, 0xf3, 0xf8, 0x04, 0xfa,
  0xee, 0xf2, 0x01, 0xf4, 0x10, 0xf1, 0xf7, 0x05, 0x07, 0x10, 0x00, 0x01,
  0x0f, 0xfe, 0xf8, 0x06, 0x05, 0x06, 0x0e, 0x04, 0x0c, 0x07, 0x0b, 0x0f,
  0xf7, 0x04, 0x0a, 0x05, 0x01, 0xfe, 0x02, 0x04, 0xf5, 0x01, 0x0c, 0xfe,
  0x04, 0x03, 0x05, 0x02, 0xfb, 0xf8, 0xf8, 0x11, 0x02, 0x00, 0xf7, 0xf8,
  0xfa, 0xf6, 0x0b, 0xfb, 0xf2, 0xed, 0xf5, 0x13, 0x07, 0xf4, 0x02, 0xf7,
  0x08, 0x01, 0xf8, 0x0c, 0x03, 0xf9, 0x10, 0xf6, 0x0f, 0xfe, 0xfa, 0xee,
  0xf9, 0xff, 0x10, 0x13, 0x09, 0xf8, 0xf6, 0x06, 0x05, 0x0e, 0xfc, 0xfa,
  0x05, 0xf4, 0x0b, 0x0c, 0xf3, 0x0c, 0xef, 0xfb, 0x0d, 0xf2, 0x03, 0xf1,
  0xf1, 0xfb, 0x00, 0x02, 0xf3, 0xed, 0xf1, 0x0d, 0x11, 0x00, 0x0f, 0x01,
  0xfb, 0xed, 0xfb, 0xec, 0x08, 0x0d, 0x13, 0x00, 0xf8, 0xf7, 0x08, 0xf3,
  0x00, 0xfd, 0xf9, 0xef, 0xf1, 0xf1, 0x01, 0xfb, 0xef, 0x0c, 0xed, 0x07,
  0xec, 0x02, 0x0f, 0x0d, 0xf5, 0x06, 0xf2, 0x0d, 0x0d, 0x06, 0xf3, 0x0d,
  0xf5, 0xf6, 0x00, 0xef, 0x02, 0x07, 0x07, 0xf9, 0x00, 0xff, 0x06, 0x01,
  0x01, 0x10, 0xf8, 0x0d, 0x0d, 0xfe, 0xfd, 0xfc, 0x01, 0x09, 0xec, 0x06,
  0xf9, 0xfb, 0x08, 0xf6, 0x0c, 0x0c, 0x03, 0x13, 0xf1, 0x0a, 0x0d, 0x12,
  0xf0, 0xfc, 0x0d, 0x0f, 0x09, 0xf6, 0xfe, 0x01, 0x05, 0xfa, 0xfc, 0x06,
